<pad>	0
<unk>	0
<s>	0
</s>	0
wa	-0
▁k	-1
▁t	-2
▁a	-3
in	-4
▁m	-5
ha	-6
he	-7
▁n	-8
▁s	-9
li	-10
▁y	-11
an	-12
on	-13
re	-14
▁wa	-15
en	-16
▁ku	-17
at	-18
is	-19
▁the	-20
it	-21
▁ya	-22
▁b	-23
▁w	-24
er	-25
ou	-26
▁c	-27
ing	-28
▁u	-29
or	-30
▁na	-31
le	-32
▁f	-33
▁p	-34
ar	-35
hi	-36
▁an	-37
ik	-38
▁to	-39
▁o	-40
za	-41
es	-42
▁ha	-43
am	-44
la	-45
▁kwa	-46
▁in	-47
▁d	-48
ed	-49
ba	-50
▁of	-51
ot	-52
ia	-53
▁I	-54
ili	-55
▁ma	-56
ku	-57
▁and	-58
om	-59
ll	-60
id	-61
un	-62
hu	-63
st	-64
im	-65
we	-66
▁g	-67
ka	-68
▁v	-69
ho	-70
ic	-71
um	-72
ke	-73
yo	-74
▁you	-75
as	-76
ion	-77
ve	-78
hat	-79
ad	-80
▁T	-81
ri	-82
al	-83
▁be	-84
ut	-85
ika	-86
na	-87
zi	-88
▁hi	-89
▁e	-90
▁re	-91
ya	-92
▁M	-93
mba	-94
et	-95
ent	-96
▁S	-97
▁j	-98
▁za	-99
▁A	-100
se	-101
ana	-102
gu	-103
ye	-104
lo	-105
ra	-106
▁is	-107
his	-108
▁la	-109
▁on	-110
▁for	-111
ro	-112
ini	-113
ch	-114
▁ni	-115
▁that	-116
ji	-117
bu	-118
da	-119
ta	-120
ly	-121
▁H	-122
▁he	-123
▁it	-124
ko	-125
kuwa	-126
▁K	-127
ct	-128
ja	-129
▁N	-130
ina	-131
▁W	-132
▁"	-133
ld	-134
if	-135
▁we	-136
▁hu	-137
ce	-138
▁kat	-139
ge	-140
si	-141
▁B	-142
▁C	-143
..	-144
▁sa	-145
ir	-146
zo	-147
ari	-148
tu	-149
▁cha	-150
▁as	-151
to	-152
ani	-153
fu	-154
▁katika	-155
gh	-156
ama	-157
ow	-158
ver	-159
▁mo	-160
ma	-161
▁li	-162
ith	-163
po	-164
ati	-165
fan	-166
di	-167
▁ki	-168
enye	-169
ote	-170
ata	-171
▁with	-172
▁amba	-173
iki	-174
ga	-175
end	-176
ita	-177
out	-178
nd	-179
go	-180
and	-181
isha	-182
▁P	-183
▁was	-184
ation	-185
▁ju	-186
▁se	-187
▁ili	-188
ua	-189
▁are	-190
▁1	-191
▁st	-192
▁(	-193
▁have	-194
▁The	-195
▁ali	-196
▁kuwa	-197
ter	-198
ki	-199
her	-200
ur	-201
weza	-202
▁ka	-203
pe	-204
▁l	-205
▁z	-206
▁L	-207
han	-208
sa	-209
▁th	-210
wenye	-211
▁U	-212
fanya	-213
▁kwamba	-214
me	-215
ime	-216
ine	-217
vyo	-218
▁at	-219
ill	-220
od	-221
idi	-222
▁not	-223
ers	-224
▁your	-225
▁this	-226
▁ba	-227
▁J	-228
il	-229
▁D	-230
▁mu	-231
▁ne	-232
▁me	-233
ele	-234
one	-235
ght	-236
ara	-237
ould	-238
ome	-239
kati	-240
te	-241
▁or	-242
pa	-243
▁una	-244
▁con	-245
ru	-246
our	-247
ck	-248
▁up	-249
▁F	-250
▁do	-251
▁us	-252
▁pro	-253
▁lo	-254
▁so	-255
▁tu	-256
▁sana	-257
▁su	-258
▁2	-259
▁de	-260
ate	-261
kini	-262
nt	-263
▁kup	-264
▁le	-265
▁ta	-266
uri	-267
▁go	-268
ble	-269
▁zaidi	-270
▁ina	-271
lly	-272
▁my	-273
▁com	-274
▁kama	-275
ok	-276
▁kwenye	-277
pp	-278
bo	-279
▁kuto	-280
ss	-281
ment	-282
▁ex	-283
sha	-284
rom	-285
▁vi	-286
▁al	-287
th	-288
ul	-289
▁ny	-290
▁wakati	-291
ol	-292
▁R	-293
▁can	-294
est	-295
▁po	-296
▁G	-297
mu	-298
▁E	-299
eng	-300
▁O	-301
cha	-302
iku	-303
art	-304
zuri	-305
▁juu	-306
▁wana	-307
▁r	-308
▁wor	-309
angu	-310
che	-311
ind	-312
▁si	-313
cho	-314
▁but	-315
▁all	-316
enda	-317
...	-318
▁au	-319
▁-	-320
▁from	-321
ple	-322
▁will	-323
ess	-324
▁lakini	-325
su	-326
▁his	-327
ort	-328
ay	-329
▁h	-330
fe	-331
▁ho	-332
qu	-333
eo	-334
▁mwa	-335
▁ab	-336
ada	-337
▁had	-338
red	-339
▁Y	-340
00	-341
ano	-342
ungu	-343
ze	-344
oto	-345
▁by	-346
asa	-347
bwa	-348
us	-349
fa	-350
ite	-351
▁they	-352
ep	-353
▁whi	-354
ig	-355
▁out	-356
▁fa	-357
▁hii	-358
▁ye	-359
vi	-360
ingi	-361
uti	-362
mb	-363
▁whe	-364
▁yake	-365
▁vya	-366
▁kus	-367
▁un	-368
ry	-369
itu	-370
▁kazi	-371
▁Kwa	-372
ist	-373
▁hiyo	-374
▁mw	-375
▁one	-376
▁moja	-377
▁yako	-378
▁about	-379
iti	-380
el	-381
ap	-382
mo	-383
▁hivyo	-384
do	-385
ikiwa	-386
ew	-387
rou	-388
▁ambayo	-389
▁uli	-390
▁kut	-391
▁wali	-392
▁wan	-393
▁te	-394
ant	-395
▁more	-396
asi	-397
ish	-398
oni	-399
▁Ma	-400
uli	-401
▁who	-402
ong	-403
uma	-404
▁has	-405
▁mi	-406
▁some	-407
▁nina	-408
▁In	-409
kana	-410
▁ana	-411
ink	-412
uni	-413
ther	-414
any	-415
ys	-416
fun	-417
aribu	-418
▁what	-419
je	-420
▁get	-421
▁en	-422
▁like	-423
▁nili	-424
▁kila	-425
▁kutoka	-426
▁would	-427
▁It	-428
de	-429
ona	-430
▁kn	-431
▁any	-432
babu	-433
▁which	-434
umia	-435
▁mtu	-436
ide	-437
▁been	-438
▁if	-439
▁ikiwa	-440
una	-441
▁her	-442
ven	-443
▁pa	-444
jia	-445
ous	-446
res	-447
per	-448
▁there	-449
ila	-450
▁am	-451
▁sha	-452
▁time	-453
uta	-454
▁kufanya	-455
ice	-456
amu	-457
▁no	-458
vu	-459
▁mat	-460
ti	-461
▁yangu	-462
hir	-463
ima	-464
▁sh	-465
sema	-466
▁mara	-467
ishi	-468
isho	-469
▁them	-470
reat	-471
ity	-472
▁watu	-473
▁see	-474
▁just	-475
▁“	-476
▁work	-477
du	-478
ally	-479
so	-480
▁af	-481
weli	-482
ame	-483
ambo	-484
▁their	-485
isa	-486
ty	-487
▁He	-488
ne	-489
ase	-490
ction	-491
▁know	-492
▁3	-493
▁were	-494
ore	-495
▁siku	-496
▁ra	-497
imi	-498
▁year	-499
etu	-500
gum	-501
▁ad	-502
▁sababu	-503
bi	-504
▁co	-505
icha	-506
▁she	-507
▁im	-508
sh	-509
▁ser	-510
for	-511
▁ca	-512
wan	-513
ingine	-514
chu	-515
▁our	-516
ive	-517
▁than	-518
▁other	-519
hita	-520
▁pia	-521
▁ever	-522
▁when	-523
amo	-524
lu	-525
jili	-526
▁Wa	-527
▁V	-528
▁kwan	-529
ard	-530
atu	-531
pt	-532
pi	-533
ida	-534
eople	-535
▁bo	-536
ial	-537
".	-538
."	-539
ci	-540
ks	-541
ans	-542
▁kuj	-543
▁ch	-544
▁fe	-545
▁look	-546
endele	-547
01	-548
ond	-549
king	-550
▁ajili	-551
be	-552
cc	-553
ving	-554
amili	-555
▁said	-556
husu	-557
rd	-558
▁people	-559
led	-560
▁We	-561
▁kab	-562
ami	-563
▁mp	-564
▁wat	-565
adhi	-566
kiwa	-567
▁off	-568
▁sasa	-569
ery	-570
kua	-571
▁fo	-572
int	-573
▁Ha	-574
,,	-575
▁kuli	-576
ree	-577
▁huo	-578
log	-579
isi	-580
engi	-581
▁pre	-582
▁kum	-583
onekana	-584
ca	-585
ated	-586
▁think	-587
ions	-588
yote	-589
▁kweli	-590
▁i	-591
ings	-592
hitaji	-593
▁pla	-594
▁ar	-595
▁mba	-596
▁kitu	-597
ps	-598
▁uta	-599
▁wako	-600
▁zina	-601
bili	-602
ifa	-603
yes	-604
▁into	-605
vuti	-606
▁part	-607
ence	-608
ound	-609
▁wake	-610
ust	-611
▁Hi	-612
▁ms	-613
▁ambao	-614
lf	-615
▁qu	-616
▁good	-617
▁St	-618
▁ut	-619
▁him	-620
lia	-621
adi	-622
▁res	-623
ms	-624
▁over	-625
▁ri	-626
iko	-627
▁hali	-628
▁kupata	-629
chi	-630
▁La	-631
kea	-632
▁new	-633
iaka	-634
▁This	-635
hing	-636
▁don	-637
▁njia	-638
▁4	-639
les	-640
▁comp	-641
▁You	-642
▁alikuwa	-643
ff	-644
wn	-645
ved	-646
▁baada	-647
▁dis	-648
▁chini	-649
hali	-650
ance	-651
wezi	-652
▁day	-653
anga	-654
ount	-655
▁nini	-656
ea	-657
ora	-658
▁need	-659
▁every	-660
▁nzuri	-661
ren	-662
pas	-663
ents	-664
irst	-665
ning	-666
▁per	-667
▁kubwa	-668
▁did	-669
zwa	-670
▁ro	-671
▁mwenye	-672
▁back	-673
▁kid	-674
day	-675
ure	-676
▁could	-677
▁da	-678
▁ilikuwa	-679
ishwa	-680
▁kuku	-681
ary	-682
▁ak	-683
▁201	-684
▁also	-685
▁man	-686
hani	-687
▁miaka	-688
▁di	-689
).	-690
ting	-691
▁mt	-692
▁very	-693
port	-694
▁hadi	-695
▁haku	-696
ations	-697
▁5	-698
hisi	-699
▁mku	-700
▁nyingi	-701
anda	-702
co	-703
▁how	-704
▁much	-705
▁want	-706
zaji	-707
ress	-708
▁make	-709
▁And	-710
imu	-711
own	-712
ition	-713
penda	-714
mi	-715
ough	-716
▁only	-717
dili	-718
▁cho	-719
bia	-720
▁mas	-721
▁well	-722
▁chan	-723
jua	-724
inge	-725
va	-726
rit	-727
ham	-728
fiki	-729
▁iliyo	-730
futa	-731
nder	-732
amoja	-733
▁now	-734
use	-735
rent	-736
hemu	-737
pata	-738
badili	-739
ikia	-740
moja	-741
▁ten	-742
ogo	-743
ful	-744
▁tuna	-745
ume	-746
▁19	-747
▁wangu	-748
ni	-749
▁Ku	-750
▁Na	-751
bari	-752
▁should	-753
▁cont	-754
",	-755
ach	-756
mer	-757
▁If	-758
anza	-759
▁inc	-760
umb	-761
gain	-762
▁uwe	-763
▁kuna	-764
ang	-765
hari	-766
▁way	-767
▁muda	-768
▁.	-769
▁tw	-770
▁karibu	-771
▁As	-772
▁pr	-773
form	-774
▁kwanza	-775
▁aka	-776
▁may	-777
▁then	-778
engine	-779
▁kuhusu	-780
gr	-781
oma	-782
▁bila	-783
lic	-784
ord	-785
und	-786
▁sp	-787
ical	-788
onge	-789
▁But	-790
paswa	-791
pen	-792
▁fi	-793
▁read	-794
ato	-795
▁che	-796
▁stu	-797
▁yao	-798
▁great	-799
hy	-800
tt	-801
ory	-802
▁So	-803
fore	-804
ene	-805
anya	-806
▁hilo	-807
▁first	-808
▁mwaka	-809
▁hata	-810
▁nd	-811
▁bad	-812
▁bet	-813
▁zili	-814
no	-815
har	-816
▁pamoja	-817
▁really	-818
ces	-819
▁kam	-820
ves	-821
▁hel	-822
waida	-823
ub	-824
▁app	-825
▁again	-826
▁mmoja	-827
▁these	-828
▁say	-829
▁unaweza	-830
lan	-831
▁act	-832
▁jin	-833
▁after	-834
omet	-835
tain	-836
likuwa	-837
onyes	-838
▁under	-839
▁um	-840
weka	-841
▁even	-842
chukua	-843
himu	-844
▁awa	-845
▁habari	-846
?"	-847
ui	-848
▁[	-849
▁kina	-850
▁mimi	-851
▁kawaida	-852
▁here	-853
em	-854
▁huu	-855
▁ume	-856
fi	-857
endelea	-858
▁ame	-859
▁uj	-860
ambu	-861
▁yote	-862
▁sho	-863
▁hapa	-864
▁sehemu	-865
▁vizuri	-866
liwa	-867
▁comm	-868
▁jinsi	-869
▁post	-870
ito	-871
▁tena	-872
▁years	-873
bs	-874
▁shu	-875
▁use	-876
hiriki	-877
ende	-878
▁spe	-879
ifu	-880
other	-881
▁most	-882
▁maisha	-883
▁tr	-884
ungum	-885
▁Nina	-886
▁wewe	-887
ise	-888
umi	-889
▁down	-890
mbu	-891
▁fu	-892
dogo	-893
▁start	-894
▁Ni	-895
ek	-896
llow	-897
▁ime	-898
ono	-899
ates	-900
idia	-901
▁tra	-902
▁help	-903
▁An	-904
▁ngu	-905
▁ndani	-906
▁kusa	-907
▁take	-908
ick	-909
fura	-910
▁chi	-911
▁Nili	-912
zungum	-913
ced	-914
self	-915
▁yo	-916
▁bora	-917
ies	-918
▁wote	-919
▁going	-920
▁muhimu	-921
haa	-922
row	-923
ts	-924
hose	-925
▁hivi	-926
▁before	-927
▁acc	-928
▁wenye	-929
ors	-930
▁des	-931
▁does	-932
▁6	-933
▁maj	-934
husi	-935
ling	-936
ast	-937
▁mk	-938
▁many	-939
▁being	-940
▁Se	-941
pita	-942
zima	-943
▁huko	-944
▁long	-945
▁nime	-946
,"	-947
▁add	-948
▁bar	-949
▁somet	-950
com	-951
▁ful	-952
▁hawa	-953
▁kuji	-954
read	-955
▁cons	-956
ali	-957
▁yoyote	-958
mw	-959
ons	-960
umba	-961
▁bus	-962
cause	-963
▁What	-964
▁made	-965
kwa	-966
ned	-967
zoe	-968
▁nje	-969
▁two	-970
▁kidogo	-971
▁mwisho	-972
shi	-973
zing	-974
▁too	-975
▁book	-976
▁yana	-977
▁yetu	-978
▁There	-979
vel	-980
▁hatu	-981
▁ambaye	-982
▁kati	-983
pokuwa	-984
▁Ba	-985
ongo	-986
▁lot	-987
▁those	-988
ft	-989
▁gu	-990
imes	-991
▁chu	-992
ating	-993
▁jambo	-994
ges	-995
zama	-996
▁right	-997
▁hand	-998
▁fulani	-999
▁tovuti	-1000
lin	-1001
sed	-1002
uzi	-1003
▁mambo	-1004
▁ke	-1005
fany	-1006
fect	-1007
ject	-1008
ments	-1009
▁mwan	-1010
ue	-1011
▁No	-1012
kika	-1013
▁wao	-1014
▁inte	-1015
▁love	-1016
▁pers	-1017
▁hakuna	-1018
▁inaweza	-1019
hin	-1020
duma	-1021
▁kile	-1022
▁alisema	-1023
▁dif	-1024
▁mbaya	-1025
▁jo	-1026
ande	-1027
iria	-1028
▁hat	-1029
▁kabla	-1030
oo	-1031
ataka	-1032
round	-1033
ually	-1034
▁find	-1035
▁where	-1036
eni	-1037
bisha	-1038
rough	-1039
hib	-1040
▁kuta	-1041
▁maji	-1042
▁Je	-1043
▁pe	-1044
▁ita	-1045
▁mar	-1046
gumu	-1047
▁pos	-1048
▁Ikiwa	-1049
ip	-1050
▁Re	-1051
▁its	-1052
▁ndi	-1053
atika	-1054
▁blog	-1055
▁mzuri	-1056
ath	-1057
ked	-1058
▁picha	-1059
▁kutumia	-1060
▁'	-1061
ante	-1062
▁few	-1063
▁bado	-1064
▁yali	-1065
▁kuliko	-1066
▁because	-1067
▁–	-1068
buni	-1069
ondo	-1070
▁map	-1071
▁zote	-1072
get	-1073
▁ambazo	-1074
eno	-1075
ango	-1076
▁such	-1077
),	-1078
mp	-1079
vid	-1080
▁happ	-1081
xt	-1082
,,,,	-1083
hidi	-1084
▁kuf	-1085
▁war	-1086
▁wengi	-1087
gg	-1088
man	-1089
ight	-1090
tern	-1091
▁kun	-1092
▁life	-1093
▁follow	-1094
chan	-1095
rest	-1096
sili	-1097
▁kuk	-1098
ought	-1099
▁watoto	-1100
ak	-1101
lie	-1102
bda	-1103
fsi	-1104
▁end	-1105
▁sta	-1106
chungu	-1107
ring	-1108
wili	-1109
▁kis	-1110
▁own	-1111
wenda	-1112
▁Than	-1113
▁mpya	-1114
ikiria	-1115
▁exper	-1116
▁things	-1117
▁To	-1118
cy	-1119
ttle	-1120
▁sto	-1121
fauti	-1122
▁still	-1123
▁kabisa	-1124
▁through	-1125
▁something	-1126
▁7	-1127
oth	-1128
ris	-1129
▁uk	-1130
kula	-1131
pect	-1132
wango	-1133
▁child	-1134
hwa	-1135
furahi	-1136
inga	-1137
▁Ali	-1138
▁kili	-1139
.”	-1140
▁mis	-1141
▁try	-1142
▁vita	-1143
▁huduma	-1144
ie	-1145
ng	-1146
ward	-1147
▁Una	-1148
▁last	-1149
▁mwingine	-1150
hed	-1151
▁10	-1152
▁Ho	-1153
refu	-1154
▁nad	-1155
▁feel	-1156
▁mengi	-1157
▁Lakini	-1158
▁mkubwa	-1159
▁8	-1160
▁dec	-1161
thing	-1162
▁little	-1163
▁@	-1164
▁sc	-1165
▁She	-1166
▁best	-1167
▁sec	-1168
ather	-1169
▁gani	-1170
▁supp	-1171
▁never	-1172
ins	-1173
uka	-1174
itia	-1175
▁mon	-1176
▁sio	-1177
▁vid	-1178
onyesha	-1179
▁$	-1180
als	-1181
jwa	-1182
▁Ch	-1183
▁ap	-1184
ones	-1185
▁gr	-1186
▁got	-1187
shara	-1188
▁aina	-1189
ific	-1190
ract	-1191
▁fil	-1192
▁stud	-1193
ud	-1194
▁kia	-1195
▁let	-1196
heria	-1197
▁inform	-1198
hen	-1199
▁200	-1200
▁That	-1201
▁same	-1202
lis	-1203
cial	-1204
ener	-1205
▁str	-1206
gan	-1207
kes	-1208
▁sim	-1209
▁progr	-1210
▁ulimw	-1211
▁famili	-1212
ire	-1213
▁ag	-1214
arly	-1215
chap	-1216
lewa	-1217
▁col	-1218
ikali	-1219
ner	-1220
▁sy	-1221
atik	-1222
ghu	-1223
▁fri	-1224
▁inv	-1225
▁old	-1226
ghuli	-1227
▁inayo	-1228
▁maoni	-1229
▁yenye	-1230
▁15	-1231
▁mb	-1232
▁ph	-1233
▁tal	-1234
amini	-1235
chagu	-1236
▁wiki	-1237
▁kuona	-1238
tic	-1239
cess	-1240
▁care	-1241
▁hili	-1242
▁world	-1243
ten	-1244
▁cour	-1245
▁ambapo	-1246
umu	-1247
▁mbili	-1248
▁might	-1249
▁mahali	-1250
ota	-1251
arch	-1252
fasi	-1253
mber	-1254
▁play	-1255
▁nguvu	-1256
gon	-1257
hati	-1258
kani	-1259
▁hatua	-1260
!!	-1261
sta	-1262
weze	-1263
▁count	-1264
The	-1265
bly	-1266
▁Al	-1267
▁come	-1268
▁wetu	-1269
▁tofauti	-1270
wi	-1271
ber	-1272
bali	-1273
yari	-1274
▁ent	-1275
▁kik	-1276
▁set	-1277
▁uku	-1278
▁nita	-1279
▁nafasi	-1280
ult	-1281
▁Un	-1282
ince	-1283
▁hapo	-1284
▁kita	-1285
hirika	-1286
▁while	-1287
▁wengine	-1288
oti	-1289
rap	-1290
▁id	-1291
▁New	-1292
▁Katika	-1293
▁kwenda	-1294
ody	-1295
▁Hii	-1296
▁isi	-1297
▁keep	-1298
▁found	-1299
▁baadhi	-1300
gn	-1301
vent	-1302
fuata	-1303
▁kuru	-1304
▁sure	-1305
ict	-1306
jaribu	-1307
▁tayari	-1308
os	-1309
▁ass	-1310
▁tri	-1311
▁They	-1312
▁data	-1313
▁hara	-1314
andika	-1315
inal	-1316
▁Com	-1317
▁For	-1318
▁min	-1319
▁rep	-1320
▁serv	-1321
▁wame	-1322
▁shaka	-1323
▁rahisi	-1324
alth	-1325
lect	-1326
▁aki	-1327
▁car	-1328
▁tur	-1329
lease	-1330
▁used	-1331
▁week	-1332
atikana	-1333
anz	-1334
▁Me	-1335
▁ac	-1336
▁gi	-1337
ited	-1338
vers	-1339
▁far	-1340
chool	-1341
!"	-1342
--	-1343
less	-1344
▁kif	-1345
sible	-1346
▁fact	-1347
▁vile	-1348
ens	-1349
lop	-1350
▁lear	-1351
▁kuele	-1352
▁information	-1353
000	-1354
oun	-1355
▁Do	-1356
▁...	-1357
▁ins	-1358
▁kip	-1359
▁pay	-1360
▁rec	-1361
chote	-1362
▁high	-1363
▁writ	-1364
▁month	-1365
▁interest	-1366
aru	-1367
esha	-1368
ices	-1369
▁ris	-1370
its	-1371
▁pub	-1372
▁put	-1373
▁sawa	-1374
inafsi	-1375
▁mbali	-1376
▁friend	-1377
zungumza	-1378
low	-1379
▁Ro	-1380
▁thought	-1381
gi	-1382
▁vy	-1383
ative	-1384
funza	-1385
▁wazi	-1386
▁experi	-1387
hus	-1388
amii	-1389
puni	-1390
ways	-1391
▁kij	-1392
▁kim	-1393
▁haya	-1394
▁nchi	-1395
ongeza	-1396
▁diffe	-1397
▁produ	-1398
ton	-1399
▁exp	-1400
▁tru	-1401
▁home	-1402
▁requ	-1403
▁kutoa	-1404
▁person	-1405
uc	-1406
ass	-1407
▁De	-1408
ouse	-1409
lling	-1410
uring	-1411
▁wata	-1412
▁point	-1413
ign	-1414
med	-1415
▁Be	-1416
engu	-1417
▁haraka	-1418
▁why	-1419
▁kute	-1420
▁place	-1421
▁mwenyewe	-1422
▁wr	-1423
ithi	-1424
▁cle	-1425
▁cur	-1426
▁show	-1427
▁ulio	-1428
▁vitu	-1429
ifanya	-1430
ac	-1431
ds	-1432
▁On	-1433
▁ed	-1434
▁reg	-1435
▁kari	-1436
▁looking	-1437
▁chochote	-1438
▁karibuni	-1439
jo	-1440
esa	-1441
lls	-1442
ute	-1443
▁pl	-1444
iche	-1445
▁tun	-1446
▁vis	-1447
iness	-1448
ingia	-1449
▁site	-1450
▁labda	-1451
der	-1452
oro	-1453
▁Si	-1454
ness	-1455
unga	-1456
▁kib	-1457
▁rel	-1458
▁sub	-1459
▁sur	-1460
▁didn	-1461
ikisha	-1462
▁kiasi	-1463
▁Wakati	-1464
ars	-1465
ics	-1466
▁ata	-1467
▁msa	-1468
▁give	-1469
▁next	-1470
ational	-1471
iashara	-1472
iv	-1473
omo	-1474
▁Jo	-1475
▁My	-1476
atia	-1477
▁each	-1478
▁pres	-1479
anisha	-1480
gonjwa	-1481
▁zilizo	-1482
▁walikuwa	-1483
fad	-1484
▁kad	-1485
▁belie	-1486
▁inclu	-1487
▁around	-1488
▁better	-1489
ged	-1490
ste	-1491
enzi	-1492
ilia	-1493
▁kuv	-1494
▁run	-1495
velop	-1496
▁kula	-1497
▁mali	-1498
▁Mungu	-1499
▁anaye	-1500
▁thing	-1501
▁lazima	-1502
kazi	-1503
▁shi	-1504
ready	-1505
stand	-1506
▁hard	-1507
▁maku	-1508
▁must	-1509
umbani	-1510
▁quest	-1511
▁always	-1512
ork	-1513
ual	-1514
,000	-1515
amba	-1516
undi	-1517
wele	-1518
▁dha	-1519
▁kit	-1520
adili	-1521
▁kisha	-1522
kuja	-1523
omba	-1524
uala	-1525
wahi	-1526
▁How	-1527
chini	-1528
fadhi	-1529
▁comple	-1530
ron	-1531
ason	-1532
ider	-1533
▁att	-1534
▁imp	-1535
engene	-1536
ertain	-1537
▁asili	-1538
▁video	-1539
▁9	-1540
uku	-1541
▁zi	-1542
fiti	-1543
here	-1544
ster	-1545
wali	-1546
ween	-1547
▁bas	-1548
fikiri	-1549
▁course	-1550
▁familia	-1551
ark	-1552
▁nik	-1553
▁saf	-1554
▁ter	-1555
▁usa	-1556
▁wom	-1557
ambia	-1558
atizo	-1559
funzi	-1560
uliza	-1561
▁lili	-1562
▁nyuma	-1563
▁kupitia	-1564
▁nyumbani	-1565
We	-1566
esi	-1567
faa	-1568
qua	-1569
▁Af	-1570
▁ob	-1571
endo	-1572
eshi	-1573
▁cla	-1574
▁ide	-1575
▁kud	-1576
▁done	-1577
▁poli	-1578
hak	-1579
umo	-1580
zito	-1581
▁God	-1582
▁tuli	-1583
▁mkono	-1584
▁chakula	-1585
▁hadithi	-1586
▁serikali	-1587
con	-1588
eta	-1589
hind	-1590
indi	-1591
▁vit	-1592
hanga	-1593
▁Amer	-1594
▁wasi	-1595
▁since	-1596
andishi	-1597
my	-1598
ane	-1599
▁pri	-1600
▁Hata	-1601
▁numb	-1602
▁plan	-1603
wasili	-1604
▁import	-1605
▁kadhaa	-1606
▁kusema	-1607
▁already	-1608
▁nadhani	-1609
ade	-1610
ding	-1611
engo	-1612
▁clo	-1613
▁mik	-1614
▁saa	-1615
▁zao	-1616
asema	-1617
▁hizi	-1618
▁mcha	-1619
▁wale	-1620
▁dhidi	-1621
▁biashara	-1622
up	-1623
▁Z	-1624
▁Ta	-1625
come	-1626
ifaa	-1627
line	-1628
ters	-1629
umla	-1630
▁cre	-1631
▁Mimi	-1632
rekani	-1633
▁inter	-1634
▁uwezo	-1635
▁school	-1636
uth	-1637
▁Pa	-1638
▁Sa	-1639
vern	-1640
alama	-1641
amily	-1642
▁mrefu	-1643
angalia	-1644
▁nchini	-1645
▁proble	-1646
▁es	-1647
kari	-1648
wever	-1649
▁able	-1650
▁yeye	-1651
▁kiwango	-1652
gle	-1653
toa	-1654
ined	-1655
▁top	-1656
hibit	-1657
▁both	-1658
▁came	-1659
▁ambacho	-1660
▁:	-1661
▁mn	-1662
cept	-1663
kala	-1664
mall	-1665
piga	-1666
▁bid	-1667
▁barua	-1668
▁develop	-1669
▁support	-1670
▁ulimwengu	-1671
▁At	-1672
▁bu	-1673
hara	-1674
▁big	-1675
zoefu	-1676
▁state	-1677
▁using	-1678
▁msingi	-1679
▁mtanda	-1680
▁without	-1681
era	-1682
view	-1683
▁leo	-1684
ities	-1685
▁days	-1686
▁eneo	-1687
▁mind	-1688
umaini	-1689
▁mafuta	-1690
▁nilikuwa	-1691
keo	-1692
▁--	-1693
▁Is	-1694
▁Us	-1695
juli	-1696
mani	-1697
▁hai	-1698
▁med	-1699
▁nye	-1700
▁haki	-1701
▁mche	-1702
▁doing	-1703
▁another	-1704
▁between	-1705
badilisha	-1706
▁understand	-1707
fic	-1708
▁Lo	-1709
▁ub	-1710
jali	-1711
jika	-1712
fadhali	-1713
▁health	-1714
mit	-1715
acha	-1716
limu	-1717
▁cal	-1718
▁list	-1719
▁umri	-1720
▁sauti	-1721
▁stand	-1722
▁someone	-1723
▁actually	-1724
cer	-1725
iny	-1726
elea	-1727
amizi	-1728
ately	-1729
▁afya	-1730
▁bidhaa	-1731
▁against	-1732
pos	-1733
rect	-1734
ture	-1735
▁Mar	-1736
▁cli	-1737
▁ext	-1738
▁met	-1739
bility	-1740
ongeze	-1741
▁awali	-1742
▁kuchukua	-1743
▁nyingine	-1744
inu	-1745
▁Ki	-1746
oney	-1747
▁fun	-1748
▁hour	-1749
▁zamani	-1750
▁zinazo	-1751
▁kampuni	-1752
.:	-1753
act	-1754
kee	-1755
way	-1756
geme	-1757
▁When	-1758
saidia	-1759
▁walio	-1760
husiana	-1761
fo	-1762
ese	-1763
ken	-1764
ney	-1765
▁mta	-1766
▁pur	-1767
▁head	-1768
▁open	-1769
harama	-1770
▁Bones	-1771
▁three	-1772
▁getting	-1773
▁Marekani	-1774
▁business	-1775
▁different	-1776
eti	-1777
▁free	-1778
▁lead	-1779
▁vina	-1780
ention	-1781
▁small	-1782
cri	-1783
pon	-1784
▁br	-1785
▁ko	-1786
....	-1787
ched	-1788
▁def	-1789
▁fin	-1790
▁web	-1791
adala	-1792
▁huyo	-1793
▁mada	-1794
▁moyo	-1795
▁webs	-1796
▁having	-1797
▁kamili	-1798
▁nyumba	-1799
▁important	-1800
ike	-1801
ket	-1802
kia	-1803
▁ru	-1804
leta	-1805
rasa	-1806
ially	-1807
▁ange	-1808
▁disc	-1809
▁Thanks	-1810
▁ambalo	-1811
▁msaada	-1812
zingatia	-1813
hite	-1814
ioni	-1815
rist	-1816
shwa	-1817
very	-1818
pokea	-1819
▁anga	-1820
▁hayo	-1821
▁less	-1822
▁unge	-1823
▁family	-1824
▁kuanza	-1825
▁second	-1826
▁children	-1827
sp	-1828
iga	-1829
rehe	-1830
▁Can	-1831
▁emp	-1832
▁kuo	-1833
▁mfu	-1834
ingep	-1835
▁mean	-1836
▁gener	-1837
endeleo	-1838
▁happen	-1839
▁kusoma	-1840
▁programu	-1841
hur	-1842
hiri	-1843
unda	-1844
▁bit	-1845
▁cor	-1846
▁unt	-1847
ingawa	-1848
▁visit	-1849
▁though	-1850
▁upande	-1851
▁uzoefu	-1852
patikana	-1853
vernment	-1854
▁certain	-1855
▁kibinafsi	-1856
gy	-1857
ger	-1858
ost	-1859
pes	-1860
ted	-1861
▁Go	-1862
baya	-1863
land	-1864
uild	-1865
wana	-1866
▁wak	-1867
▁bara	-1868
▁vili	-1869
▁appro	-1870
▁macho	-1871
▁shule	-1872
husiano	-1873
▁bahati	-1874
▁mpango	-1875
▁report	-1876
▁safari	-1877
vy	-1878
ave	-1879
most	-1880
ying	-1881
▁Pro	-1882
▁fur	-1883
▁kic	-1884
ungua	-1885
ution	-1886
▁pili	-1887
▁akili	-1888
▁kujua	-1889
▁trans	-1890
▁yeyote	-1891
▁consider	-1892
▁inaonekana	-1893
gin	-1894
zim	-1895
▁Ra	-1896
ense	-1897
sion	-1898
▁Jum	-1899
lojia	-1900
zoezi	-1901
▁away	-1902
▁grou	-1903
▁kuche	-1904
▁mbele	-1905
▁uweze	-1906
▁wanao	-1907
▁kwangu	-1908
Kwa	-1909
vis	-1910
▁Ar	-1911
ious	-1912
mali	-1913
reza	-1914
zazi	-1915
ident	-1916
zungu	-1917
▁appe	-1918
▁issu	-1919
▁kind	-1920
▁lina	-1921
▁side	-1922
ctions	-1923
▁faida	-1924
▁making	-1925
▁partic	-1926
▁public	-1927
▁sheria	-1928
▁ukweli	-1929
badiliko	-1930
▁&	-1931
▁/	-1932
ran	-1933
gund	-1934
kuna	-1935
sive	-1936
ently	-1937
▁game	-1938
▁kuka	-1939
▁tech	-1940
▁tell	-1941
▁mdogo	-1942
▁ninge	-1943
babisha	-1944
▁number	-1945
▁ulikuwa	-1946
lea	-1947
▁30	-1948
▁el	-1949
pote	-1950
▁Ina	-1951
▁men	-1952
kumbu	-1953
▁char	-1954
▁hist	-1955
▁pesa	-1956
▁ndogo	-1957
▁today	-1958
▁ingawa	-1959
▁kuling	-1960
chunguzi	-1961
▁gharama	-1962
▁process	-1963
▁kujaribu	-1964
cal	-1965
ety	-1966
▁LA	-1967
▁cost	-1968
▁zake	-1969
endeke	-1970
ically	-1971
▁maana	-1972
▁mtoto	-1973
▁until	-1974
▁Asante	-1975
▁commun	-1976
▁kinacho	-1977
▁utafiti	-1978
ingependa	-1979
gs	-1980
irl	-1981
ode	-1982
▁Th	-1983
enga	-1984
▁One	-1985
▁blo	-1986
▁gla	-1987
▁mko	-1988
▁rece	-1989
▁rest	-1990
▁masha	-1991
fikiria	-1992
imamizi	-1993
▁enough	-1994
▁current	-1995
▁experience	-1996
min	-1997
tle	-1998
▁ji	-1999
ular	-2000
▁wow	-2001
▁Aust	-2002
▁Kuna	-2003
▁Tuli	-2004
▁aliye	-2005
▁chake	-2006
▁least	-2007
▁money	-2008
▁Americ	-2009
▁hakika	-2010
,,,,,,,,	-2011
ingereza	-2012
▁website	-2013
▁iliyopita	-2014
by	-2015
jui	-2016
mar	-2017
omp	-2018
tur	-2019
uza	-2020
▁je	-2021
▁ud	-2022
hihi	-2023
imbo	-2024
jibu	-2025
logy	-2026
teja	-2027
wake	-2028
adamu	-2029
▁rang	-2030
▁usiku	-2031
fanyakazi	-2032
jaa	-2033
▁Le	-2034
guzi	-2035
▁nde	-2036
▁win	-2037
gemea	-2038
▁hope	-2039
▁build	-2040
▁hicho	-2041
▁times	-2042
▁vifaa	-2043
fanyika	-2044
▁chache	-2045
▁hatari	-2046
▁kutosha	-2047
▁following	-2048
cks	-2049
lau	-2050
ori	-2051
vor	-2052
erse	-2053
mbea	-2054
▁int	-2055
▁lat	-2056
▁mus	-2057
▁nin	-2058
▁yet	-2059
ining	-2060
light	-2061
ortun	-2062
rence	-2063
wanja	-2064
▁kiku	-2065
▁real	-2066
▁halisi	-2067
▁kuweka	-2068
▁mchezo	-2069
▁nywele	-2070
▁wowote	-2071
▁believe	-2072
▁working	-2073
▁shughuli	-2074
alo	-2075
ams	-2076
she	-2077
▁16	-2078
▁20	-2079
▁Hu	-2080
lish	-2081
outh	-2082
poti	-2083
▁Che	-2084
▁usi	-2085
ambua	-2086
chang	-2087
▁full	-2088
▁inst	-2089
▁link	-2090
▁tatu	-2091
▁unao	-2092
▁zako	-2093
▁Baada	-2094
▁kitabu	-2095
▁anything	-2096
ric	-2097
uss	-2098
▁12	-2099
edha	-2100
pema	-2101
reke	-2102
ross	-2103
▁mom	-2104
▁hair	-2105
▁mash	-2106
▁spec	-2107
fanywa	-2108
▁kuondo	-2109
▁‘	-2110
fer	-2111
ife	-2112
vun	-2113
zed	-2114
▁18	-2115
▁ty	-2116
atur	-2117
illi	-2118
ists	-2119
kano	-2120
▁job	-2121
▁mor	-2122
▁pic	-2123
▁pow	-2124
▁won	-2125
▁Kama	-2126
▁food	-2127
▁jina	-2128
ichezo	-2129
▁kamwe	-2130
▁ndiyo	-2131
▁ngumu	-2132
▁story	-2133
▁uzito	-2134
▁almost	-2135
wezekana	-2136
▁mazoezi	-2137
▁complete	-2138
fir	-2139
▁Fe	-2140
fano	-2141
kato	-2142
▁uko	-2143
▁enjo	-2144
▁girl	-2145
▁sign	-2146
▁sisi	-2147
ishaji	-2148
▁Thank	-2149
▁means	-2150
▁mwezi	-2151
▁night	-2152
▁whole	-2153
▁wavuti	-2154
▁kuandika	-2155
▁mabadiliko	-2156
NG	-2157
zu	-2158
ret	-2159
▁11	-2160
▁Sk	-2161
ants	-2162
fumo	-2163
ital	-2164
mail	-2165
▁dri	-2166
▁iwe	-2167
▁mag	-2168
▁sit	-2169
▁mana	-2170
▁mato	-2171
▁simu	-2172
▁langu	-2173
▁water	-2174
▁during	-2175
▁started	-2176
,”	-2177
kio	-2178
mes	-2179
the	-2180
val	-2181
▁Not	-2182
▁mad	-2183
▁wal	-2184
onder	-2185
umiwa	-2186
▁Hiyo	-2187
▁basi	-2188
▁chap	-2189
▁once	-2190
▁went	-2191
▁wind	-2192
umiaji	-2193
▁incre	-2194
▁suala	-2195
▁change	-2196
▁country	-2197
ww	-2198
age	-2199
ler	-2200
▁Su	-2201
cing	-2202
jabu	-2203
wasi	-2204
▁Ili	-2205
ffect	-2206
▁case	-2207
▁educ	-2208
▁says	-2209
▁soon	-2210
mbelea	-2211
▁idadi	-2212
▁short	-2213
hifadhi	-2214
▁mapema	-2215
▁trying	-2216
▁kulikuwa	-2217
▁students	-2218
▁wanawake	-2219
▁wanaweza	-2220
▁Bo	-2221
▁Co	-2222
▁Da	-2223
iasa	-2224
kele	-2225
ombe	-2226
umbe	-2227
▁dep	-2228
▁ear	-2229
▁law	-2230
ature	-2231
bably	-2232
▁exam	-2233
▁jioni	-2234
▁rangi	-2235
▁Christ	-2236
▁anaweza	-2237
▁project	-2238
▁kushiriki	-2239
fess	-2240
ries	-2241
ties	-2242
utia	-2243
▁Jap	-2244
▁exc	-2245
▁lar	-2246
ustom	-2247
▁Nime	-2248
▁else	-2249
▁meet	-2250
▁told	-2251
chache	-2252
hibiti	-2253
unguza	-2254
▁check	-2255
▁maneno	-2256
▁uwanja	-2257
▁kipindi	-2258
▁kupende	-2259
▁michezo	-2260
▁kujifunza	-2261
▁wanafunzi	-2262
asy	-2263
bio	-2264
▁17	-2265
▁25	-2266
▁sk	-2267
ches	-2268
ever	-2269
geni	-2270
atibu	-2271
ional	-2272
▁cent	-2273
▁joto	-2274
▁left	-2275
▁wazo	-2276
gundua	-2277
ichana	-2278
▁artic	-2279
▁jamii	-2280
▁order	-2281
hughuli	-2282
▁kurudi	-2283
▁matter	-2284
▁company	-2285
▁problem	-2286
▁kusaidia	-2287
▁wasiwasi	-2288
Je	-2289
gul	-2290
hip	-2291
ots	-2292
rid	-2293
ung	-2294
ames	-2295
eter	-2296
grap	-2297
oria	-2298
▁Con	-2299
▁cou	-2300
▁ura	-2301
▁eyes	-2302
▁form	-2303
▁mama	-2304
adhani	-2305
▁asked	-2306
▁class	-2307
▁doesn	-2308
▁mfano	-2309
▁offic	-2310
▁shall	-2311
▁chumba	-2312
▁product	-2313
▁uhusiano	-2314
ils	-2315
▁13	-2316
▁dr	-2317
kili	-2318
kosa	-2319
raha	-2320
▁bre	-2321
▁vir	-2322
imama	-2323
lisha	-2324
pping	-2325
vaila	-2326
vious	-2327
▁idea	-2328
jawahi	-2329
kubali	-2330
atibabu	-2331
furahia	-2332
▁badala	-2333
▁probably	-2334
0.	-2335
Ni	-2336
▁Q	-2337
bor	-2338
mon	-2339
▁Ka	-2340
alum	-2341
ando	-2342
bore	-2343
lity	-2344
tano	-2345
▁adv	-2346
▁dra	-2347
▁opt	-2348
ories	-2349
▁body	-2350
▁face	-2351
▁grow	-2352
▁kesi	-2353
▁prom	-2354
▁talk	-2355
▁yame	-2356
▁heart	-2357
▁kuanz	-2358
▁tangu	-2359
▁please	-2360
▁reason	-2361
▁mengine	-2362
▁mahitaji	-2363
▁isipokuwa	-2364
jer	-2365
ood	-2366
ands	-2367
kumu	-2368
ried	-2369
sing	-2370
stem	-2371
taka	-2372
▁mit	-2373
ither	-2374
▁hasa	-2375
▁hiki	-2376
▁timu	-2377
▁upon	-2378
chagua	-2379
▁ajabu	-2380
▁availa	-2381
DY	-2382
cle	-2383
ley	-2384
gozi	-2385
ired	-2386
kodi	-2387
odha	-2388
▁All	-2389
▁par	-2390
▁ski	-2391
▁vip	-2392
▁LADY	-2393
▁Siku	-2394
▁pass	-2395
▁rese	-2396
▁took	-2397
▁umma	-2398
▁along	-2399
▁house	-2400
▁mfumo	-2401
▁mwili	-2402
▁young	-2403
endesha	-2404
▁asante	-2405
▁become	-2406
▁direct	-2407
▁expect	-2408
▁malipo	-2409
▁orodha	-2410
▁yaliyo	-2411
▁service	-2412
▁matibabu	-2413
▁possible	-2414
gue	-2415
▁(1	-2416
ging	-2417
pole	-2418
▁hizo	-2419
▁name	-2420
▁tuta	-2421
▁view	-2422
erseys	-2423
▁allow	-2424
▁elimu	-2425
▁impro	-2426
▁women	-2427
▁maalum	-2428
▁akasema	-2429
▁mtandao	-2430
▁writing	-2431
amaanisha	-2432
▁uchunguzi	-2433
▁uwezekano	-2434
br	-2435
hn	-2436
hes	-2437
not	-2438
sel	-2439
▁4.	-2440
▁mv	-2441
eneo	-2442
kata	-2443
kufa	-2444
mini	-2445
pped	-2446
reen	-2447
▁Pia	-2448
▁kar	-2449
▁low	-2450
▁ras	-2451
▁uso	-2452
conom	-2453
▁With	-2454
▁four	-2455
▁true	-2456
▁zime	-2457
hamani	-2458
▁bring	-2459
▁light	-2460
▁reali	-2461
boresha	-2462
hangaza	-2463
▁Hakuna	-2464
▁ilivyo	-2465
▁months	-2466
▁others	-2467
▁angalau	-2468
▁nothing	-2469
▁kupendeza	-2470
loy	-2471
usi	-2472
▁14	-2473
▁2.	-2474
▁Ad	-2475
▁Ye	-2476
▁ga	-2477
ency	-2478
lace	-2479
▁Are	-2480
▁Dis	-2481
▁Ger	-2482
▁Bila	-2483
▁Your	-2484
▁cond	-2485
▁wait	-2486
arajia	-2487
gether	-2488
▁blogi	-2489
▁favor	-2490
▁group	-2491
▁haiku	-2492
▁isiyo	-2493
▁mnamo	-2494
▁tried	-2495
▁effect	-2496
▁yourself	-2497
▁Uingereza	-2498
▁available	-2499
▁kulingana	-2500
▁maendeleo	-2501
:/	-2502
ezi	-2503
▁Ju	-2504
▁Of	-2505
amua	-2506
firi	-2507
kuru	-2508
tari	-2509
▁Ind	-2510
▁ans	-2511
▁bro	-2512
▁ele	-2513
▁val	-2514
elezo	-2515
▁call	-2516
▁deal	-2517
▁inge	-2518
▁pret	-2519
▁room	-2520
▁hisia	-2521
▁mwana	-2522
▁seems	-2523
▁words	-2524
▁furaha	-2525
▁kichwa	-2526
▁baadaye	-2527
▁government	-2528
▁kubadilisha	-2529
://	-2530
aji	-2531
eld	-2532
ied	-2533
pec	-2534
rol	-2535
umz	-2536
anta	-2537
ines	-2538
zuia	-2539
▁100	-2540
▁Ser	-2541
▁bea	-2542
▁spa	-2543
▁ufa	-2544
hinda	-2545
lazim	-2546
mbali	-2547
pango	-2548
▁gari	-2549
▁half	-2550
▁indi	-2551
▁lako	-2552
▁news	-2553
▁turn	-2554
▁alama	-2555
▁often	-2556
▁photo	-2557
▁quite	-2558
▁custom	-2559
▁filamu	-2560
▁maeneo	-2561
▁mwanam	-2562
ongezeka	-2563
▁Unaweza	-2564
▁thamani	-2565
▁kuongeza	-2566
amp	-2567
mbi	-2568
mia	-2569
ses	-2570
ansi	-2571
biri	-2572
ikio	-2573
kizo	-2574
leas	-2575
umbu	-2576
▁bei	-2577
▁qua	-2578
▁wap	-2579
▁Some	-2580
▁team	-2581
▁usha	-2582
ential	-2583
tazama	-2584
▁early	-2585
▁invest	-2586
▁kupiga	-2587
▁system	-2588
▁wateja	-2589
▁wonder	-2590
▁chapisho	-2591
▁everything	-2592
▁kushangaza	-2593
▁kuzingatia	-2594
14	-2595
ny	-2596
guu	-2597
usu	-2598
▁Col	-2599
▁Yes	-2600
▁ago	-2601
arifa	-2602
chumi	-2603
ungan	-2604
vered	-2605
▁Sovi	-2606
▁Tuna	-2607
▁Wana	-2608
▁easi	-2609
▁nani	-2610
▁nice	-2611
anyiko	-2612
ending	-2613
▁After	-2614
▁close	-2615
▁learn	-2616
▁offer	-2617
▁quick	-2618
▁treat	-2619
▁dakika	-2620
▁matokeo	-2621
▁question	-2622
▁services	-2623
▁kuendelea	-2624
5,	-2625
ES	-2626
ash	-2627
but	-2628
ray	-2629
zea	-2630
▁Ex	-2631
▁Te	-2632
▁et	-2633
▁ik	-2634
fung	-2635
ikwa	-2636
load	-2637
unua	-2638
▁May	-2639
risto	-2640
umizi	-2641
▁live	-2642
▁pepe	-2643
▁zetu	-2644
▁agree	-2645
▁econom	-2646
▁provid	-2647
▁ukurasa	-2648
▁mchakato	-2649
ubu	-2650
▁Po	-2651
▁Pr	-2652
alme	-2653
dust	-2654
fuat	-2655
wapo	-2656
▁Don	-2657
▁Wor	-2658
▁kan	-2659
▁pop	-2660
disha	-2661
hisha	-2662
tumia	-2663
▁bene	-2664
▁easy	-2665
▁fore	-2666
▁sing	-2667
itions	-2668
▁enjoy	-2669
aratibu	-2670
▁anyone	-2671
▁called	-2672
▁mikono	-2673
▁vigumu	-2674
hitajika	-2675
▁friends	-2676
▁kuwasili	-2677
ER	-2678
You	-2679
mpt	-2680
orp	-2681
ply	-2682
diyo	-2683
▁dar	-2684
▁ind	-2685
mbers	-2686
olved	-2687
▁Just	-2688
▁dawa	-2689
▁five	-2690
▁moto	-2691
▁naye	-2692
▁seen	-2693
▁vari	-2694
itumia	-2695
umbavu	-2696
▁hours	-2697
▁kumbu	-2698
▁level	-2699
▁major	-2700
▁pract	-2701
▁retur	-2702
▁wange	-2703
▁zangu	-2704
▁mother	-2705
chunguza	-2706
▁discuss	-2707
hakikisha	-2708
.)	-2709
amb	-2710
ats	-2711
enu	-2712
leo	-2713
lor	-2714
uck	-2715
ump	-2716
zee	-2717
▁(2	-2718
▁sw	-2719
ange	-2720
atic	-2721
dies	-2722
inda	-2723
itwa	-2724
undo	-2725
▁cut	-2726
▁pot	-2727
fikia	-2728
itive	-2729
▁line	-2730
▁move	-2731
▁reme	-2732
▁activ	-2733
▁akiwa	-2734
▁jumla	-2735
▁kando	-2736
▁miezi	-2737
▁mkopo	-2738
▁prote	-2739
jifunza	-2740
nolojia	-2741
▁pretty	-2742
▁risasi	-2743
▁sahihi	-2744
▁weight	-2745
▁kikundi	-2746
▁together	-2747
▁zinaweza	-2748
▁tafadhali	-2749
It	-2750
▁*	-2751
lay	-2752
▁:)	-2753
▁Oh	-2754
▁Vi	-2755
biwa	-2756
tact	-2757
▁Car	-2758
▁Now	-2759
▁air	-2760
elewa	-2761
▁area	-2762
▁auth	-2763
▁hear	-2764
▁main	-2765
▁mawa	-2766
▁mili	-2767
▁page	-2768
▁past	-2769
▁tume	-2770
zation	-2771
▁These	-2772
▁creat	-2773
▁makes	-2774
▁mingi	-2775
▁power	-2776
▁coming	-2777
▁mazuri	-2778
▁within	-2779
▁kujenga	-2780
1,	-2781
ii	-2782
ism	-2783
let	-2784
mun	-2785
▁Sp	-2786
radi	-2787
ungo	-2788
wani	-2789
▁Cha	-2790
▁Per	-2791
▁eff	-2792
▁hur	-2793
▁occ	-2794
uliwa	-2795
▁bure	-2796
▁deli	-2797
▁diet	-2798
▁stay	-2799
▁beaut	-2800
▁happy	-2801
▁kwani	-2802
▁regul	-2803
artment	-2804
▁commit	-2805
▁rather	-2806
▁strong	-2807
▁wawili	-2808
▁including	-2809
▁kufikiria	-2810
▁kuzungumza	-2811
IP	-2812
ef	-2813
ey	-2814
pu	-2815
vo	-2816
are	-2817
ete	-2818
ral	-2819
▁Bi	-2820
▁TH	-2821
bara	-2822
stic	-2823
▁199	-2824
▁Goo	-2825
amani	-2826
ggest	-2827
veral	-2828
▁anap	-2829
▁large	-2830
▁looks	-2831
▁needs	-2832
▁recei	-2833
▁study	-2834
▁Google	-2835
▁athari	-2836
▁intern	-2837
▁kupote	-2838
▁rafiki	-2839
▁kuingia	-2840
▁everyone	-2841
▁matumizi	-2842
▁0	-2843
ank	-2844
mor	-2845
que	-2846
vil	-2847
▁1.	-2848
able	-2849
cent	-2850
isim	-2851
sage	-2852
▁Chu	-2853
▁ama	-2854
▁art	-2855
▁bra	-2856
▁hon	-2857
▁htt	-2858
jerum	-2859
ubuhi	-2860
▁glad	-2861
▁lake	-2862
▁prov	-2863
▁human	-2864
▁sound	-2865
athmini	-2866
▁Austra	-2867
▁looked	-2868
▁yanayo	-2869
jerumani	-2870
julikana	-2871
▁asubuhi	-2872
▁example	-2873
▁itakuwa	-2874
▁kilicho	-2875
2.	-2876
OU	-2877
▁—	-2878
cum	-2879
ici	-2880
nia	-2881
▁Fa	-2882
▁Or	-2883
...]	-2884
ases	-2885
fika	-2886
gawa	-2887
hamu	-2888
ompy	-2889
zini	-2890
▁Ham	-2891
▁bla	-2892
▁bun	-2893
▁isn	-2894
▁kui	-2895
▁maa	-2896
araji	-2897
ccess	-2898
elele	-2899
point	-2900
uture	-2901
wekwa	-2902
▁John	-2903
▁Kila	-2904
▁Sasa	-2905
▁hewa	-2906
▁kids	-2907
▁kuja	-2908
▁pati	-2909
▁sita	-2910
fungwa	-2911
though	-2912
▁begin	-2913
▁mafun	-2914
▁mwand	-2915
▁ujuzi	-2916
ompyuta	-2917
zalisha	-2918
▁busara	-2919
▁diffic	-2920
▁online	-2921
lazimika	-2922
▁kufikia	-2923
▁present	-2924
▁reading	-2925
▁suggest	-2926
▁addition	-2927
▁unapaswa	-2928
▁questions	-2929
30	-2930
uro	-2931
▁cr	-2932
▁ep	-2933
▁op	-2934
Nina	-2935
book	-2936
hili	-2937
list	-2938
▁Mat	-2939
▁equ	-2940
▁mti	-2941
▁mul	-2942
▁pat	-2943
▁saw	-2944
▁zia	-2945
falme	-2946
ified	-2947
otaka	-2948
▁baba	-2949
▁dist	-2950
ataifa	-2951
athiri	-2952
ongoza	-2953
▁const	-2954
▁email	-2955
▁hands	-2956
▁baridi	-2957
▁kuishi	-2958
▁record	-2959
▁regard	-2960
▁respon	-2961
chapisha	-2962
▁However	-2963
▁forward	-2964
▁maswali	-2965
▁profess	-2966
▁marafiki	-2967
▁kuangalia	-2968
▁ningependa	-2969
.,	-2970
ug	-2971
cus	-2972
lig	-2973
ppy	-2974
son	-2975
yot	-2976
hile	-2977
icho	-2978
orth	-2979
▁bur	-2980
▁cap	-2981
▁mod	-2982
▁oil	-2983
▁utu	-2984
arufu	-2985
ility	-2986
ished	-2987
▁2018	-2988
▁cred	-2989
▁deta	-2990
▁kiny	-2991
▁nusu	-2992
▁ufan	-2993
aribio	-2994
▁mfupi	-2995
▁works	-2996
▁ziada	-2997
chaguzi	-2998
▁simply	-2999
▁taking	-3000
▁vitabu	-3001
pecially	-3002
▁however	-3003
▁makubwa	-3004
▁mipango	-3005
▁perfect	-3006
▁research	-3007
3.	-3008
IL	-3009
ich	-3010
uru	-3011
▁cl	-3012
Nili	-3013
alin	-3014
body	-3015
indo	-3016
mper	-3017
ombo	-3018
vazi	-3019
▁194	-3020
▁Was	-3021
▁hau	-3022
▁hit	-3023
▁nia	-3024
▁uha	-3025
alamu	-3026
imaye	-3027
stead	-3028
▁York	-3029
▁gone	-3030
▁kadi	-3031
▁wish	-3032
▁word	-3033
enguni	-3034
husika	-3035
selves	-3036
▁clean	-3037
▁colle	-3038
▁comes	-3039
▁defin	-3040
▁kwako	-3041
▁amount	-3042
▁jukumu	-3043
▁myself	-3044
▁turned	-3045
▁account	-3046
▁anasema	-3047
▁hufanya	-3048
▁kucheza	-3049
▁kuvutia	-3050
▁members	-3051
▁serious	-3052
▁subject	-3053
▁mojawapo	-3054
▁maandishi	-3055
▁relations	-3056
50	-3057
RA	-3058
▁,	-3059
▁X	-3060
vaa	-3061
▁Ap	-3062
cies	-3063
ides	-3064
iful	-3065
keti	-3066
ures	-3067
wala	-3068
▁His	-3069
▁Wat	-3070
▁tek	-3071
ataba	-3072
ching	-3073
▁msha	-3074
▁neno	-3075
nology	-3076
rought	-3077
▁daima	-3078
▁mbinu	-3079
▁share	-3080
fanikio	-3081
ichache	-3082
▁design	-3083
▁kelele	-3084
▁siwezi	-3085
▁tarehe	-3086
zungumzo	-3087
▁control	-3088
▁success	-3089
▁unataka	-3090
▁usalama	-3091
wasiliano	-3092
▁favorite	-3093
▁inapaswa	-3094
▁kupoteza	-3095
▁wafanyakazi	-3096
Na	-3097
ibu	-3098
atoa	-3099
lled	-3100
rani	-3101
ront	-3102
side	-3103
▁bed	-3104
▁bin	-3105
▁kuu	-3106
▁opp	-3107
▁pea	-3108
▁yes	-3109
anies	-3110
ended	-3111
zingi	-3112
▁goes	-3113
▁seem	-3114
▁test	-3115
lished	-3116
otokea	-3117
▁among	-3118
▁benef	-3119
▁given	-3120
▁novel	-3121
▁sense	-3122
zingira	-3123
▁Stalin	-3124
▁living	-3125
▁moment	-3126
fuatilia	-3127
▁Ilikuwa	-3128
▁article	-3129
▁bookmar	-3130
▁program	-3131
▁viwango	-3132
rekebisha	-3133
▁yalikuwa	-3134
▁zilikuwa	-3135
▁education	-3136
▁ulimwenguni	-3137
.1	-3138
dio	-3139
lex	-3140
huru	-3141
ised	-3142
paka	-3143
pele	-3144
tana	-3145
zamo	-3146
▁Mku	-3147
▁Res	-3148
▁mam	-3149
▁sci	-3150
ilton	-3151
ktari	-3152
lisho	-3153
▁answ	-3154
▁sent	-3155
▁sifa	-3156
▁Tulip	-3157
▁books	-3158
▁mradi	-3159
▁couple	-3160
▁mawazo	-3161
▁tatizo	-3162
▁upendo	-3163
▁Nadhani	-3164
▁contact	-3165
▁provide	-3166
▁several	-3167
furahisha	-3168
▁kompyuta	-3169
▁mwanamke	-3170
??	-3171
lla	-3172
mis	-3173
▁Ca	-3174
▁Ne	-3175
▁Sc	-3176
▁yu	-3177
aper	-3178
aswa	-3179
atwa	-3180
ctor	-3181
gani	-3182
hers	-3183
keza	-3184
lied	-3185
ombi	-3186
reme	-3187
▁kiu	-3188
▁nao	-3189
▁sol	-3190
▁tre	-3191
Ikiwa	-3192
fisha	-3193
funga	-3194
ledge	-3195
uzaji	-3196
▁Cent	-3197
▁hold	-3198
▁kutu	-3199
▁reco	-3200
▁stru	-3201
▁visa	-3202
▁waku	-3203
atumia	-3204
ifadhi	-3205
ishoni	-3206
kuliwa	-3207
▁China	-3208
▁added	-3209
▁heard	-3210
▁kukaa	-3211
▁ndege	-3212
▁ready	-3213
▁super	-3214
▁Intern	-3215
▁future	-3216
▁indust	-3217
▁kulipa	-3218
▁likely	-3219
▁parent	-3220
▁maelezo	-3221
▁require	-3222
▁hatimaye	-3223
▁ninaweza	-3224
▁mwandishi	-3225
-1	-3226
La	-3227
ado	-3228
llo	-3229
upe	-3230
zia	-3231
▁Ed	-3232
▁Li	-3233
▁Mi	-3234
▁Mo	-3235
ateg	-3236
utes	-3237
▁Eng	-3238
▁hea	-3239
▁inf	-3240
▁son	-3241
ulana	-3242
▁Euro	-3243
▁Here	-3244
▁step	-3245
▁stop	-3246
▁tele	-3247
▁wapi	-3248
ressed	-3249
▁linal	-3250
▁party	-3251
▁taken	-3252
▁woman	-3253
ination	-3254
▁States	-3255
▁United	-3256
▁access	-3257
▁author	-3258
▁chance	-3259
▁concer	-3260
▁darasa	-3261
▁kuacha	-3262
▁makala	-3263
▁proper	-3264
▁review	-3265
▁social	-3266
▁ujumla	-3267
▁vibaya	-3268
atumaini	-3269
▁Hifadhi	-3270
▁brought	-3271
▁improve	-3272
▁mafunzo	-3273
fanyikazi	-3274
▁Hamilton	-3275
▁experien	-3276
▁uchaguzi	-3277
▁companies	-3278
▁mafanikio	-3279
▁mazingira	-3280
▁mbalimbali	-3281
▁teknolojia	-3282
▁interesting	-3283
▁kuhakikisha	-3284
-2	-3285
EN	-3286
▁#	-3287
▁🙂	-3288
ert	-3289
ets	-3290
▁By	-3291
haps	-3292
leep	-3293
onna	-3294
▁Mon	-3295
▁Sep	-3296
▁War	-3297
▁abo	-3298
▁cat	-3299
▁dig	-3300
▁fla	-3301
▁hak	-3302
▁ima	-3303
▁mes	-3304
▁sek	-3305
▁sum	-3306
haria	-3307
table	-3308
urity	-3309
▁Nove	-3310
▁atta	-3311
▁deep	-3312
▁fire	-3313
▁jour	-3314
▁kumi	-3315
▁situ	-3316
endaji	-3317
ungufu	-3318
▁based	-3319
▁later	-3320
▁lives	-3321
▁shida	-3322
▁credit	-3323
▁kulala	-3324
▁kuunda	-3325
▁mavazi	-3326
▁muundo	-3327
▁rekodi	-3328
▁ripoti	-3329
▁salama	-3330
▁himself	-3331
▁kijamii	-3332
▁morning	-3333
▁perform	-3334
▁shirika	-3335
▁kuelekea	-3336
▁kushinda	-3337
▁matatizo	-3338
▁personal	-3339
▁remember	-3340
▁specific	-3341
▁Australia	-3342
OR	-3343
ph	-3344
ded	-3345
mas	-3346
rew	-3347
ria	-3348
▁Mt	-3349
▁Tw	-3350
▁bl	-3351
baki	-3352
ided	-3353
jumu	-3354
zani	-3355
▁Dep	-3356
▁deb	-3357
▁hot	-3358
▁nis	-3359
▁tou	-3360
ister	-3361
▁Also	-3362
▁Well	-3363
▁chuo	-3364
▁kuni	-3365
▁kusu	-3366
▁mach	-3367
▁movi	-3368
▁oper	-3369
▁usio	-3370
ration	-3371
umzika	-3372
▁Count	-3373
▁clear	-3374
▁known	-3375
▁miguu	-3376
▁wrong	-3377
▁common	-3378
▁kukata	-3379
▁majira	-3380
▁mtindo	-3381
▁unavyo	-3382
▁charact	-3383
▁content	-3384
▁mtazamo	-3385
▁zingine	-3386
▁Ujerumani	-3387
IV	-3388
Wa	-3389
of	-3390
hau	-3391
hit	-3392
kam	-3393
mwa	-3394
pig	-3395
ury	-3396
▁Au	-3397
▁Br	-3398
▁Mu	-3399
ards	-3400
inue	-3401
oose	-3402
waya	-3403
▁Jan	-3404
▁Uni	-3405
▁ste	-3406
amuzi	-3407
arudi	-3408
hamia	-3409
lango	-3410
▁knew	-3411
▁nayo	-3412
anguka	-3413
arisha	-3414
atural	-3415
inally	-3416
▁Every	-3417
▁local	-3418
▁simil	-3419
▁stuff	-3420
▁tabia	-3421
▁write	-3422
▁either	-3423
▁huwezi	-3424
▁kuelewa	-3425
▁ufanisi	-3426
▁wanaume	-3427
▁kutafuta	-3428
▁kutokana	-3429
▁msichana	-3430
▁mwishoni	-3431
▁nadharia	-3432
▁nimekuwa	-3433
▁wafanyikazi	-3434
:1	-3435
koa	-3436
nes	-3437
omu	-3438
par	-3439
▁vo	-3440
amad	-3441
cked	-3442
enty	-3443
kund	-3444
laka	-3445
ming	-3446
ream	-3447
room	-3448
▁Feb	-3449
▁eye	-3450
▁uni	-3451
▁2016	-3452
▁2017	-3453
▁Cong	-3454
▁city	-3455
▁conf	-3456
▁jana	-3457
▁kali	-3458
▁kipe	-3459
▁rema	-3460
▁thir	-3461
gement	-3462
iction	-3463
▁First	-3464
▁Japan	-3465
▁Maoni	-3466
▁death	-3467
▁disco	-3468
atafuta	-3469
▁Canada	-3470
▁applic	-3471
▁couldn	-3472
▁easily	-3473
▁father	-3474
▁necess	-3475
▁riwaya	-3476
▁search	-3477
▁toward	-3478
▁Alikuwa	-3479
▁general	-3480
▁kutokea	-3481
ambulisho	-3482
▁learning	-3483
▁lilikuwa	-3484
▁ushiriki	-3485
▁kuboresha	-3486
▁kupunguza	-3487
▁ninafurahi	-3488
op	-3489
erv	-3490
hud	-3491
orn	-3492
set	-3493
vin	-3494
yle	-3495
▁5.	-3496
▁Ke	-3497
▁Mr	-3498
▁bi	-3499
ligi	-3500
miwa	-3501
pose	-3502
sure	-3503
ults	-3504
velt	-3505
ziki	-3506
▁Ana	-3507
▁Kam	-3508
▁Let	-3509
▁Med	-3510
▁Our	-3511
▁abs	-3512
▁dem	-3513
▁fre	-3514
▁har	-3515
▁ill	-3516
▁mif	-3517
▁neg	-3518
▁pas	-3519
▁sat	-3520
▁ute	-3521
cript	-3522
imbia	-3523
paswi	-3524
posed	-3525
stari	-3526
ulizo	-3527
where	-3528
▁caus	-3529
▁hofu	-3530
▁hosp	-3531
▁huru	-3532
▁port	-3533
▁send	-3534
▁zita	-3535
ources	-3536
▁Ndiyo	-3537
▁above	-3538
▁leave	-3539
▁metho	-3540
▁peace	-3541
▁zenye	-3542
ference	-3543
▁Disney	-3544
▁cannot	-3545
▁create	-3546
▁likizo	-3547
▁longer	-3548
▁ujumbe	-3549
fululizo	-3550
oosevelt	-3551
▁amazing	-3552
▁further	-3553
▁kipekee	-3554
▁mkutano	-3555
▁urahisi	-3556
▁American	-3557
▁kutambua	-3558
▁machache	-3559
▁opportun	-3560
▁beautiful	-3561
▁especially	-3562
▁mazungumzo	-3563
▁development	-3564
0,	-3565
5.	-3566
mm	-3567
doa	-3568
ily	-3569
jis	-3570
now	-3571
orm	-3572
ror	-3573
▁pi	-3574
aska	-3575
jini	-3576
laha	-3577
samu	-3578
urus	-3579
▁Any	-3580
▁Chi	-3581
▁Mas	-3582
▁ask	-3583
▁iki	-3584
▁mka	-3585
▁nne	-3586
▁pie	-3587
cking	-3588
ering	-3589
ikili	-3590
linzi	-3591
mbari	-3592
▁wasn	-3593
itolea	-3594
urance	-3595
▁World	-3596
▁fight	-3597
▁focus	-3598
▁front	-3599
▁issue	-3600
▁sivyo	-3601
▁thank	-3602
▁worth	-3603
amaduni	-3604
onyesho	-3605
▁Europe	-3606
▁issues	-3607
▁miwili	-3608
▁return	-3609
fanikiwa	-3610
▁individ	-3611
▁kingine	-3612
▁mention	-3613
▁nambari	-3614
▁picture	-3615
▁similar	-3616
▁ugonjwa	-3617
▁vinavyo	-3618
chapishwa	-3619
▁kutazama	-3620
▁position	-3621
▁tunaweza	-3622
▁Roosevelt	-3623
▁difficult	-3624
▁watumiaji	-3625
▁completely	-3626
▁kutembelea	-3627
▁inamaanisha	-3628
9,	-3629
Ha	-3630
ID	-3631
In	-3632
au	-3633
bb	-3634
yu	-3635
des	-3636
hab	-3637
iod	-3638
kus	-3639
rir	-3640
uba	-3641
ugh	-3642
▁24	-3643
▁Id	-3644
▁Ja	-3645
▁sm	-3646
huka	-3647
ichu	-3648
yama	-3649
▁Hey	-3650
▁Sec	-3651
▁Ste	-3652
▁Why	-3653
▁buy	-3654
▁cra	-3655
▁non	-3656
▁upd	-3657
ament	-3658
endwa	-3659
hisho	-3660
tures	-3661
▁Look	-3662
▁Watu	-3663
▁epis	-3664
▁kupa	-3665
▁kura	-3666
▁ones	-3667
▁tano	-3668
▁waki	-3669
ikundi	-3670
maliza	-3671
▁Gener	-3672
▁Happy	-3673
▁alipo	-3674
▁kikuu	-3675
▁pekee	-3676
▁takes	-3677
▁saying	-3678
▁silaha	-3679
▁single	-3680
▁wanted	-3681
▁napenda	-3682
▁thinking	-3683
▁uliopita	-3684
▁community	-3685
▁countries	-3686
▁kuonekana	-3687
▁unahitaji	-3688
▁kusababisha	-3689
11	-3690
EA	-3691
gar	-3692
ild	-3693
lam	-3694
met	-3695
mpo	-3696
ole	-3697
uto	-3698
▁Am	-3699
▁Ok	-3700
▁ng	-3701
ator	-3702
jari	-3703
laya	-3704
pper	-3705
rodu	-3706
unge	-3707
▁cry	-3708
▁dev	-3709
▁due	-3710
▁eat	-3711
▁etc	-3712
▁fat	-3713
▁haz	-3714
▁hig	-3715
▁uja	-3716
amaki	-3717
umivu	-3718
▁Then	-3719
▁huku	-3720
▁kifo	-3721
▁kiji	-3722
▁kote	-3723
▁lost	-3724
▁prot	-3725
▁safe	-3726
angaza	-3727
itisha	-3728
▁Febru	-3729
▁Labda	-3730
▁Ulaya	-3731
▁amani	-3732
▁board	-3733
▁exist	-3734
▁unapo	-3735
stahili	-3736
▁Ingawa	-3737
▁appear	-3738
▁entire	-3739
▁samaki	-3740
askazini	-3741
▁history	-3742
▁kikubwa	-3743
▁kuondoa	-3744
▁natural	-3745
▁running	-3746
▁whether	-3747
hibitisha	-3748
engenezaji	-3749
▁certainly	-3750
▁kurekebisha	-3751
AN	-3752
lt	-3753
all	-3754
els	-3755
mbe	-3756
ony	-3757
tee	-3758
▁3.	-3759
head	-3760
iled	-3761
iron	-3762
ners	-3763
rown	-3764
vate	-3765
▁Mis	-3766
▁fix	-3767
▁hao	-3768
▁rem	-3769
▁tak	-3770
▁tas	-3771
chama	-3772
itely	-3773
krani	-3774
oland	-3775
▁Hapa	-3776
▁peke	-3777
▁phys	-3778
▁risk	-3779
▁self	-3780
▁sort	-3781
▁ways	-3782
aching	-3783
basamu	-3784
illion	-3785
inzani	-3786
▁docum	-3787
▁guess	-3788
▁lenye	-3789
▁ngozi	-3790
▁hakuwa	-3791
▁inavyo	-3792
▁needed	-3793
▁Univers	-3794
▁maarufu	-3795
▁minutes	-3796
▁talking	-3797
▁wenyewe	-3798
▁Nilikuwa	-3799
▁asilimia	-3800
▁continue	-3801
▁yanaweza	-3802
hughulikia	-3803
▁kusafisha	-3804
▁mfululizo	-3805
▁ungependa	-3806
▁kumbukumbu	-3807
IM	-3808
dd	-3809
dge	-3810
eks	-3811
elt	-3812
ffe	-3813
old	-3814
org	-3815
rib	-3816
str	-3817
wes	-3818
▁En	-3819
▁pu	-3820
cell	-3821
hoji	-3822
illa	-3823
sefu	-3824
work	-3825
▁Lit	-3826
▁Man	-3827
▁enc	-3828
▁flo	-3829
▁leg	-3830
▁lol	-3831
▁mid	-3832
▁mwe	-3833
▁pet	-3834
▁sex	-3835
▁swe	-3836
▁tit	-3837
▁vif	-3838
ances	-3839
cious	-3840
genzi	-3841
ononi	-3842
shima	-3843
umika	-3844
unuzi	-3845
▁Ange	-3846
▁Mara	-3847
▁Pres	-3848
▁bali	-3849
▁fast	-3850
▁figu	-3851
▁nasi	-3852
▁niki	-3853
▁reas	-3854
▁size	-3855
▁zisi	-3856
bishwa	-3857
lected	-3858
ondoka	-3859
▁[...]	-3860
▁below	-3861
▁field	-3862
▁games	-3863
▁lishe	-3864
▁store	-3865
▁tukio	-3866
amilifu	-3867
ificant	-3868
▁behind	-3869
▁employ	-3870
▁kudumu	-3871
▁kuomba	-3872
▁mlango	-3873
▁simple	-3874
▁wouldn	-3875
biashara	-3876
▁instead	-3877
▁kusikia	-3878
▁ufahamu	-3879
▁uthibit	-3880
▁angeweza	-3881
▁products	-3882
▁insurance	-3883
▁mtandaoni	-3884
▁mawasiliano	-3885
ls	-3886
bar	-3887
guo	-3888
ose	-3889
rop	-3890
▁..	-3891
▁Ei	-3892
▁ev	-3893
▁uv	-3894
▁wh	-3895
ites	-3896
livu	-3897
pepo	-3898
rusi	-3899
▁Hit	-3900
▁asi	-3901
▁goo	-3902
▁lea	-3903
▁uki	-3904
▁via	-3905
dhani	-3906
harib	-3907
heshi	-3908
▁Chur	-3909
▁Halo	-3910
▁coun	-3911
▁fine	-3912
▁kozi	-3913
▁lime	-3914
▁mkuu	-3915
▁near	-3916
▁sura	-3917
▁ucha	-3918
angazo	-3919
mbulia	-3920
undred	-3921
verage	-3922
▁Great	-3923
▁event	-3924
▁exact	-3925
▁table	-3926
▁ubora	-3927
▁wanas	-3928
zunguka	-3929
▁across	-3930
▁period	-3931
▁ambavyo	-3932
▁comment	-3933
▁extreme	-3934
▁imekuwa	-3935
▁maumivu	-3936
▁nilivyo	-3937
▁sharing	-3938
▁vilivyo	-3939
firishaji	-3940
▁industry	-3941
▁upungufu	-3942
▁Department	-3943
▁technology	-3944
Ta	-3945
ex	-3946
▁•	-3947
hic	-3948
igh	-3949
ott	-3950
ser	-3951
▁Ab	-3952
▁UK	-3953
▁mg	-3954
▁mj	-3955
alam	-3956
enge	-3957
fied	-3958
jana	-3959
jazo	-3960
licy	-3961
mbia	-3962
ping	-3963
uaji	-3964
▁Uta	-3965
▁age	-3966
▁ann	-3967
▁aut	-3968
▁bud	-3969
▁gha	-3970
▁iko	-3971
▁jua	-3972
▁sig	-3973
andam	-3974
fully	-3975
inema	-3976
tered	-3977
▁Cali	-3978
▁Even	-3979
▁Germ	-3980
▁Life	-3981
▁Nita	-3982
▁Once	-3983
▁bima	-3984
▁ener	-3985
▁feed	-3986
▁film	-3987
▁hamu	-3988
▁lisi	-3989
▁trou	-3990
ambuki	-3991
indano	-3992
vutiwa	-3993
▁South	-3994
▁White	-3995
▁expla	-3996
▁media	-3997
▁press	-3998
▁price	-3999
▁sleep	-4000
▁speak	-4001
▁toleo	-4002
pendeke	-4003
ruction	-4004
▁Mfalme	-4005
▁Sehemu	-4006
▁Soviet	-4007
▁mwingi	-4008
▁ndivyo	-4009
▁seemed	-4010
▁ukubwa	-4011
▁unacho	-4012
▁zijazo	-4013
chapisho	-4014
▁episode	-4015
▁heshima	-4016
▁mamlaka	-4017
▁utulivu	-4018
▁vingine	-4019
chukuliwa	-4020
▁Congress	-4021
▁building	-4022
▁problems	-4023
▁received	-4024
▁utaratibu	-4025
▁uthibitisho	-4026
,,,,,,,,,,,,,,,,	-4027
.'	-4028
He	-4029
▁£	-4030
ING	-4031
dha	-4032
lai	-4033
pan	-4034
ped	-4035
sie	-4036
sis	-4037
tab	-4038
tal	-4039
▁Ph	-4040
▁fl	-4041
ansa	-4042
atua	-4043
coin	-4044
hood	-4045
idii	-4046
jita	-4047
reet	-4048
ukio	-4049
▁HIV	-4050
▁Shu	-4051
▁hor	-4052
▁ija	-4053
▁obs	-4054
▁six	-4055
▁uka	-4056
hindi	-4057
ogopa	-4058
oting	-4059
wishi	-4060
▁City	-4061
▁Star	-4062
▁crit	-4063
▁fair	-4064
▁http	-4065
▁kasi	-4066
▁ndio	-4067
▁orig	-4068
ayansi	-4069
hindwa	-4070
▁apply	-4071
▁cause	-4072
▁chako	-4073
▁decis	-4074
▁fursa	-4075
▁haven	-4076
▁mashu	-4077
▁msimu	-4078
▁multi	-4079
▁round	-4080
▁voice	-4081
ression	-4082
▁Poland	-4083
▁affect	-4084
▁choice	-4085
▁compet	-4086
▁effort	-4087
▁market	-4088
▁mstari	-4089
▁viungo	-4090
▁wageni	-4091
▁contain	-4092
▁dhahiri	-4093
▁haikuwa	-4094
▁masuala	-4095
▁outside	-4096
▁kuchagua	-4097
▁kutembea	-4098
▁michache	-4099
▁required	-4100
▁kupumzika	-4101
▁maonyesho	-4102
▁definitely	-4103
▁themselves	-4104
8,	-4105
AT	-4106
uk	-4107
Una	-4108
bur	-4109
ian	-4110
ows	-4111
udi	-4112
▁$2	-4113
▁Tr	-4114
▁em	-4115
ends	-4116
esho	-4117
ikuu	-4118
inua	-4119
kwaa	-4120
lipo	-4121
ught	-4122
unti	-4123
▁Act	-4124
▁ben	-4125
▁dou	-4126
▁fru	-4127
▁gra	-4128
▁lay	-4129
▁mir	-4130
▁ref	-4131
▁sun	-4132
atasi	-4133
epend	-4134
omaji	-4135
unifu	-4136
▁Most	-4137
▁anti	-4138
▁comb	-4139
▁fund	-4140
▁huge	-4141
▁kuny	-4142
▁lose	-4143
▁mvua	-4144
▁reci	-4145
▁save	-4146
▁sera	-4147
▁soft	-4148
▁soko	-4149
▁whom	-4150
fornia	-4151
▁Jambo	-4152
▁Kisha	-4153
▁Septe	-4154
▁areas	-4155
▁bidii	-4156
▁haswa	-4157
▁pleas	-4158
▁prior	-4159
▁recom	-4160
▁swali	-4161
▁third	-4162
▁white	-4163
▁yaliy	-4164
▁assess	-4165
▁chaguo	-4166
▁comput	-4167
▁energy	-4168
▁giving	-4169
▁lisilo	-4170
▁nakala	-4171
▁result	-4172
▁zisizo	-4173
▁jerseys	-4174
▁protect	-4175
▁related	-4176
▁ushauri	-4177
▁written	-4178
heshimiwa	-4179
▁historia	-4180
▁kisheria	-4181
▁kiuchumi	-4182
▁mpumbavu	-4183
▁udhibiti	-4184
▁attention	-4185
▁iwezekana	-4186
▁kuhusiana	-4187
▁waandishi	-4188
▁California	-4189
▁Inaonekana	-4190
▁iwezekanavyo	-4191
8.	-4192
▁«	-4193
how	-4194
ims	-4195
lev	-4196
ols	-4197
ram	-4198
ulu	-4199
▁21	-4200
▁Pl	-4201
▁Ut	-4202
▁ve	-4203
back	-4204
bert	-4205
hawa	-4206
hesa	-4207
hich	-4208
lala	-4209
onye	-4210
oura	-4211
ruwe	-4212
ured	-4213
void	-4214
zoea	-4215
zoni	-4216
▁Amy	-4217
▁Bar	-4218
▁Mad	-4219
▁Par	-4220
▁fac	-4221
▁fit	-4222
▁loc	-4223
▁mal	-4224
▁sal	-4225
inner	-4226
ource	-4227
rance	-4228
right	-4229
▁More	-4230
▁Mwan	-4231
▁Sand	-4232
▁Skye	-4233
▁Yeye	-4234
▁conc	-4235
▁dark	-4236
▁door	-4237
▁felt	-4238
▁gets	-4239
▁guys	-4240
▁held	-4241
▁hote	-4242
▁meas	-4243
▁meno	-4244
▁nika	-4245
▁role	-4246
▁sulu	-4247
▁trad	-4248
▁yuko	-4249
hamini	-4250
mperor	-4251
▁Cheap	-4252
▁cases	-4253
▁chall	-4254
▁hutoa	-4255
▁ident	-4256
▁kukam	-4257
▁loved	-4258
▁quali	-4259
▁space	-4260
▁value	-4261
▁wasio	-4262
aminifu	-4263
kumbuka	-4264
sanyiko	-4265
viously	-4266
▁Hitler	-4267
▁answer	-4268
▁assist	-4269
▁changu	-4270
▁ishara	-4271
▁lililo	-4272
▁linalo	-4273
▁maombi	-4274
▁muziki	-4275
▁series	-4276
▁shampo	-4277
▁thanks	-4278
▁unajua	-4279
endeleza	-4280
jumuisha	-4281
onyeshwa	-4282
▁feeling	-4283
▁mkataba	-4284
engenezwa	-4285
zalishaji	-4286
▁barabara	-4287
▁hospital	-4288
▁positive	-4289
badilishwa	-4290
▁suluhisho	-4291
▁wonderful	-4292
7,	-4293
IN	-4294
LL	-4295
erc	-4296
ilt	-4297
lim	-4298
pid	-4299
por	-4300
▁50	-4301
▁El	-4302
▁Mw	-4303
▁hy	-4304
That	-4305
ball	-4306
gram	-4307
ituo	-4308
jiri	-4309
ller	-4310
pact	-4311
pond	-4312
soci	-4313
ugha	-4314
▁198	-4315
▁Har	-4316
▁Sun	-4317
▁Tra	-4318
▁bir	-4319
▁ess	-4320
▁sea	-4321
▁smi	-4322
▁sup	-4323
▁uba	-4324
anger	-4325
asisi	-4326
ators	-4327
ental	-4328
geuka	-4329
ikati	-4330
olute	-4331
tokea	-4332
▁Chuo	-4333
▁Kwan	-4334
▁dead	-4335
▁jiji	-4336
▁loan	-4337
▁meli	-4338
▁pain	-4339
▁pick	-4340
▁teac	-4341
▁tour	-4342
irisha	-4343
morrow	-4344
onyeza	-4345
ording	-4346
pungua	-4347
umisha	-4348
vulana	-4349
wakili	-4350
▁Skorp	-4351
▁cheap	-4352
▁deter	-4353
▁estab	-4354
▁fedha	-4355
▁ijayo	-4356
▁kuvun	-4357
▁lengo	-4358
▁upepo	-4359
▁weeks	-4360
welekeo	-4361
▁google	-4362
▁office	-4363
▁organi	-4364
▁repres	-4365
badilika	-4366
chotokea	-4367
▁Jerseys	-4368
▁address	-4369
▁daktari	-4370
▁kupokea	-4371
▁nishati	-4372
▁private	-4373
▁ukosefu	-4374
▁communic	-4375
▁ingekuwa	-4376
▁katikati	-4377
▁kutekele	-4378
▁mshahara	-4379
▁particip	-4380
▁training	-4381
▁matumaini	-4382
▁potential	-4383
▁interested	-4384
▁machapisho	-4385
▁significant	-4386
.[	-4387
3,	-4388
IC	-4389
dia	-4390
imo	-4391
oms	-4392
saa	-4393
▁40	-4394
amia	-4395
bile	-4396
erve	-4397
lima	-4398
orry	-4399
wadi	-4400
ware	-4401
zidi	-4402
▁Bit	-4403
▁Kan	-4404
▁THE	-4405
▁cam	-4406
▁dia	-4407
▁rea	-4408
asiri	-4409
ondon	-4410
stems	-4411
viron	-4412
▁Bado	-4413
▁Chan	-4414
▁Cons	-4415
▁aren	-4416
▁band	-4417
▁cool	-4418
▁grap	-4419
▁haja	-4420
▁inde	-4421
▁kumw	-4422
▁maka	-4423
▁mion	-4424
▁note	-4425
▁poor	-4426
▁safi	-4427
▁stra	-4428
▁surp	-4429
▁yale	-4430
elezea	-4431
isimua	-4432
poteza	-4433
zaliwa	-4434
▁Bwana	-4435
▁Megan	-4436
▁North	-4437
▁alone	-4438
▁cross	-4439
▁extra	-4440
▁jeshi	-4441
▁kwake	-4442
▁masaa	-4443
▁maybe	-4444
▁music	-4445
▁piece	-4446
▁possi	-4447
▁topic	-4448
vunjika	-4449
▁Please	-4450
▁accept	-4451
▁alivyo	-4452
▁huenda	-4453
▁kuzuia	-4454
▁mchana	-4455
▁mwanga	-4456
▁object	-4457
▁recomm	-4458
▁season	-4459
▁zawadi	-4460
▁Emperor	-4461
▁binafsi	-4462
▁chaguzi	-4463
▁decided	-4464
▁kifedha	-4465
▁kisiasa	-4466
▁kuanzia	-4467
▁kununua	-4468
▁persona	-4469
▁prevent	-4470
▁special	-4471
▁uhakika	-4472
▁ununuzi	-4473
▁Nimekuwa	-4474
▁karatasi	-4475
▁kuondoka	-4476
▁mwelekeo	-4477
▁official	-4478
▁currently	-4479
▁kusisimua	-4480
▁majaribio	-4481
▁ningeweza	-4482
▁kuchunguza	-4483
▁usafirishaji	-4484
ON	-4485
cip	-4486
fla	-4487
kin	-4488
lio	-4489
men	-4490
nam	-4491
ril	-4492
▁Gu	-4493
▁Ms	-4494
▁uf	-4495
adem	-4496
amaa	-4497
came	-4498
chie	-4499
gers	-4500
idhi	-4501
lies	-4502
medi	-4503
▁Des	-4504
▁Jes	-4505
▁Sta	-4506
▁bat	-4507
▁guy	-4508
▁hun	-4509
▁spo	-4510
▁yan	-4511
aking	-4512
huria	-4513
potea	-4514
ville	-4515
▁Brit	-4516
▁draw	-4517
▁fail	-4518
▁fall	-4519
▁hati	-4520
▁host	-4521
▁pole	-4522
▁prin	-4523
▁slow	-4524
▁sote	-4525
▁vers	-4526
▁wife	-4527
halifu	-4528
haribu	-4529
hukuru	-4530
▁David	-4531
▁conne	-4532
▁drink	-4533
▁elect	-4534
▁finan	-4535
▁mchan	-4536
▁prepa	-4537
▁rasmi	-4538
▁sekta	-4539
▁touch	-4540
anishwa	-4541
cellent	-4542
ilimali	-4543
ongezea	-4544
zunguko	-4545
▁Kwanza	-4546
▁became	-4547
▁budget	-4548
▁career	-4549
▁honest	-4550
▁kupita	-4551
▁lolote	-4552
▁mapato	-4553
▁nilipo	-4554
engeneza	-4555
haribifu	-4556
hudhuria	-4557
▁Sanders	-4558
▁include	-4559
▁playing	-4560
▁popular	-4561
▁respect	-4562
▁televis	-4563
▁trouble	-4564
unganisha	-4565
vironment	-4566
▁absolute	-4567
▁independ	-4568
▁tulikuwa	-4569
▁wachache	-4570
▁interview	-4571
▁kuanzisha	-4572
▁kuongezea	-4573
▁conditions	-4574
20	-4575
4.	-4576
OT	-4577
WI	-4578
zy	-4579
ept	-4580
far	-4581
gam	-4582
igi	-4583
zon	-4584
▁Lu	-4585
▁NE	-4586
▁Za	-4587
▁nk	-4588
▁ti	-4589
Hata	-4590
lizi	-4591
pite	-4592
ship	-4593
tary	-4594
time	-4595
umbo	-4596
waka	-4597
year	-4598
▁Sha	-4599
▁Tun	-4600
▁kin	-4601
▁yat	-4602
erial	-4603
fanye	-4604
graph	-4605
ising	-4606
quare	-4607
tempt	-4608
tical	-4609
wered	-4610
▁Bill	-4611
▁arri	-4612
▁duka	-4613
▁iliy	-4614
▁kuep	-4615
▁mbwa	-4616
▁miti	-4617
▁prog	-4618
▁tuzo	-4619
Katika	-4620
atures	-4621
unzaji	-4622
wesome	-4623
▁Idara	-4624
▁While	-4625
▁argum	-4626
▁basis	-4627
▁daily	-4628
▁desig	-4629
▁expen	-4630
▁final	-4631
▁intel	-4632
▁kupig	-4633
▁phone	-4634
▁refer	-4635
▁staff	-4636
▁ziara	-4637
amilika	-4638
andikwa	-4639
arajiwa	-4640
▁Commun	-4641
▁London	-4642
▁associ	-4643
▁itself	-4644
▁jukwaa	-4645
▁kisasa	-4646
▁kuosha	-4647
▁makosa	-4648
▁nature	-4649
▁offers	-4650
▁purcha	-4651
▁vijana	-4652
fundisha	-4653
▁America	-4654
▁details	-4655
▁finally	-4656
▁hundred	-4657
▁mashine	-4658
▁options	-4659
▁quickly	-4660
▁shampoo	-4661
▁vikundi	-4662
▁comments	-4663
▁happened	-4664
▁involved	-4665
▁kutokuwa	-4666
▁knowledge	-4667
▁kuonyesha	-4668
▁sometimes	-4669
▁usimamizi	-4670
▁particular	-4671
10	-4672
4,	-4673
?”	-4674
IS	-4675
TC	-4676
pl	-4677
▁_	-4678
bel	-4679
dai	-4680
eto	-4681
pto	-4682
rej	-4683
sho	-4684
zer	-4685
▁Qu	-4686
▁US	-4687
This	-4688
Tuna	-4689
ashi	-4690
biki	-4691
bour	-4692
gizo	-4693
ingo	-4694
ishe	-4695
jeti	-4696
just	-4697
kapo	-4698
rely	-4699
wise	-4700
▁Ben	-4701
▁Map	-4702
▁See	-4703
▁Who	-4704
▁YOU	-4705
▁cul	-4706
▁hus	-4707
▁ile	-4708
▁mer	-4709
▁mke	-4710
engwa	-4711
ented	-4712
erson	-4713
kundu	-4714
panda	-4715
place	-4716
▁2006	-4717
▁Data	-4718
▁Hill	-4719
▁Isra	-4720
▁July	-4721
▁Part	-4722
▁West	-4723
▁arms	-4724
▁beha	-4725
▁cold	-4726
▁disa	-4727
▁fear	-4728
▁hasi	-4729
▁mwen	-4730
▁nguo	-4731
▁niko	-4732
▁redu	-4733
▁road	-4734
▁walk	-4735
Lakini	-4736
habiti	-4737
kabili	-4738
ririko	-4739
utions	-4740
▁House	-4741
▁Jumat	-4742
▁Somet	-4743
▁carry	-4744
▁kituo	-4745
▁marke	-4746
▁mfuko	-4747
▁print	-4748
▁truth	-4749
▁tunap	-4750
▁villa	-4751
▁vyote	-4752
julisha	-4753
karibia	-4754
▁Japani	-4755
▁kanuni	-4756
▁kiunga	-4757
▁mawili	-4758
▁shauku	-4759
▁states	-4760
▁vyangu	-4761
itegemea	-4762
▁Germany	-4763
▁attempt	-4764
▁changes	-4765
▁continu	-4766
▁kuchang	-4767
▁kupanga	-4768
▁matukio	-4769
▁ninacho	-4770
▁parents	-4771
▁perhaps	-4772
▁receive	-4773
▁release	-4774
▁sherehe	-4775
▁stories	-4776
▁taarifa	-4777
▁usually	-4778
sababisha	-4779
▁kukubali	-4780
▁kutolewa	-4781
▁patients	-4782
▁upinzani	-4783
▁Tafadhali	-4784
▁character	-4785
▁kudhibiti	-4786
▁resources	-4787
▁situation	-4788
▁uharibifu	-4789
▁wanapaswa	-4790
▁kikamilifu	-4791
▁mashindano	-4792
▁rasilimali	-4793
▁kuwasiliana	-4794
▁understanding	-4795
BC	-4796
ED	-4797
ET	-4798
ec	-4799
Hii	-4800
gog	-4801
sto	-4802
www	-4803
zui	-4804
▁Fu	-4805
▁ce	-4806
▁ur	-4807
Wewe	-4808
buri	-4809
heni	-4810
itor	-4811
ival	-4812
lier	-4813
look	-4814
odhe	-4815
pewa	-4816
phan	-4817
reng	-4818
riwa	-4819
take	-4820
unza	-4821
vyot	-4822
yond	-4823
▁Air	-4824
▁Jun	-4825
▁Mtu	-4826
▁Nin	-4827
▁Oct	-4828
▁Stu	-4829
▁blu	-4830
▁cir	-4831
▁fir	-4832
▁key	-4833
▁net	-4834
▁tuk	-4835
ambaa	-4836
apana	-4837
cture	-4838
ficha	-4839
geuza	-4840
iliki	-4841
inger	-4842
linda	-4843
▁Kazi	-4844
▁Many	-4845
▁Vita	-4846
▁baby	-4847
▁busy	-4848
▁date	-4849
▁dise	-4850
▁giza	-4851
▁grad	-4852
▁manu	-4853
▁remo	-4854
▁sold	-4855
▁spir	-4856
▁trip	-4857
▁type	-4858
▁vime	-4859
▁wala	-4860
cebook	-4861
fortun	-4862
gogoro	-4863
orodhe	-4864
▁2015,	-4865
▁Machi	-4866
▁asiye	-4867
▁avoid	-4868
▁black	-4869
▁china	-4870
▁ideas	-4871
▁imani	-4872
▁paint	-4873
▁paper	-4874
▁pwani	-4875
▁resol	-4876
▁spend	-4877
▁terri	-4878
▁thous	-4879
▁title	-4880
▁upole	-4881
▁watch	-4882
chezaji	-4883
fection	-4884
hojiano	-4885
mission	-4886
ulation	-4887
▁Malipo	-4888
▁inside	-4889
▁kukuza	-4890
▁misuli	-4891
▁moving	-4892
▁nataka	-4893
▁policy	-4894
▁recent	-4895
▁Amerika	-4896
▁Comment	-4897
▁kuamini	-4898
▁kufuata	-4899
▁kukumbu	-4900
▁kutisha	-4901
▁learned	-4902
▁maadili	-4903
▁nguruwe	-4904
▁request	-4905
▁various	-4906
▁wanyama	-4907
andikisha	-4908
chaguliwa	-4909
kubaliana	-4910
▁benefits	-4911
▁economic	-4912
▁finished	-4913
▁kilikuwa	-4914
▁kusafiri	-4915
▁polepole	-4916
▁security	-4917
▁thoughts	-4918
▁effective	-4919
▁extremely	-4920
▁kudumisha	-4921
▁kuendesha	-4922
▁kuchapisha	-4923
▁kufuatilia	-4924
▁relationship	-4925
7.	-4926
AR	-4927
ns	-4928
eth	-4929
ify	-4930
kat	-4931
kay	-4932
ker	-4933
lax	-4934
ush	-4935
▁Cl	-4936
▁GM	-4937
▁Ge	-4938
▁Sy	-4939
▁uw	-4940
ceed	-4941
cher	-4942
dugu	-4943
iona	-4944
lifu	-4945
loye	-4946
ober	-4947
rupt	-4948
toba	-4949
umwa	-4950
unch	-4951
▁Ass	-4952
▁Cap	-4953
▁Wal	-4954
▁ada	-4955
▁god	-4956
▁han	-4957
▁mem	-4958
▁mil	-4959
▁sad	-4960
▁sca	-4961
▁taa	-4962
elebr	-4963
iting	-4964
spect	-4965
verse	-4966
▁Bara	-4967
▁damu	-4968
▁hazi	-4969
▁hoja	-4970
▁info	-4971
▁land	-4972
▁opin	-4973
▁sche	-4974
▁skin	-4975
▁town	-4976
▁viol	-4977
▁wast	-4978
▁yasi	-4979
ambana	-4980
fungua	-4981
gamoto	-4982
kwenda	-4983
lorida	-4984
umikia	-4985
▁achie	-4986
▁break	-4987
▁breat	-4988
▁costs	-4989
▁kesho	-4990
▁knows	-4991
▁lugha	-4992
▁najua	-4993
▁ndefu	-4994
▁ndoto	-4995
▁ofisi	-4996
▁pande	-4997
▁wants	-4998
anzisha	-4999
ichukua	-5000
iongozi	-5001
jiuliza	-5002
▁advice	-5003
▁beyond	-5004
▁hawaku	-5005
▁letter	-5006
▁passed	-5007
▁sinema	-5008
▁ujenzi	-5009
▁wazazi	-5010
adiliano	-5011
▁changed	-5012
▁encoura	-5013
▁hutumia	-5014
▁kijeshi	-5015
▁kinyume	-5016
▁results	-5017
▁wanavyo	-5018
shambulia	-5019
▁Skorpion	-5020
▁practice	-5021
▁tomorrow	-5022
▁President	-5023
▁customers	-5024
▁kutarajia	-5025
▁necessary	-5026
▁treatment	-5027
▁University	-5028
▁activities	-5029
▁kutekeleza	-5030
▁environment	-5031
▁opportunity	-5032
UR	-5033
sm	-5034
col	-5035
oja	-5036
oud	-5037
pit	-5038
ras	-5039
rel	-5040
sec	-5041
sir	-5042
▁1,	-5043
▁Ac	-5044
aria	-5045
asha	-5046
band	-5047
duki	-5048
fuku	-5049
gree	-5050
hudi	-5051
imba	-5052
liza	-5053
oral	-5054
reci	-5055
waji	-5056
▁Day	-5057
▁Ita	-5058
▁Mei	-5059
▁Pre	-5060
▁San	-5061
▁Tre	-5062
▁hut	-5063
▁nit	-5064
▁vac	-5065
▁zin	-5066
atiwa	-5067
chill	-5068
ciety	-5069
ences	-5070
ikizo	-5071
imamo	-5072
kataa	-5073
okana	-5074
wanda	-5075
▁Anga	-5076
▁From	-5077
▁Hivi	-5078
▁Janu	-5079
▁Page	-5080
▁alim	-5081
▁disp	-5082
▁emer	-5083
▁fomu	-5084
▁fupi	-5085
▁jibu	-5086
▁kept	-5087
▁kime	-5088
▁kush	-5089
▁late	-5090
▁luck	-5091
▁mzee	-5092
▁njaa	-5093
▁refu	-5094
▁repe	-5095
▁siri	-5096
▁star	-5097
▁temp	-5098
▁term	-5099
fanuzi	-5100
haribi	-5101
hesabu	-5102
jiunga	-5103
kezaji	-5104
umbuka	-5105
▁India	-5106
▁Jeshi	-5107
▁Julai	-5108
▁March	-5109
▁Still	-5110
▁akita	-5111
▁alini	-5112
▁cover	-5113
▁exerc	-5114
▁kicha	-5115
▁liter	-5116
▁spent	-5117
▁wrote	-5118
husisha	-5119
vidence	-5120
▁Oktoba	-5121
▁Pamoja	-5122
▁People	-5123
▁Robert	-5124
▁announ	-5125
▁bajeti	-5126
▁choose	-5127
▁eating	-5128
▁engine	-5129
▁ensure	-5130
▁impact	-5131
▁kuleta	-5132
▁kuokoa	-5133
▁magari	-5134
▁masomo	-5135
▁mifumo	-5136
▁mitatu	-5137
▁skills	-5138
▁summer	-5139
▁vyombo	-5140
▁yasiyo	-5141
atarajia	-5142
▁Bitcoin	-5143
▁October	-5144
▁anataka	-5145
▁bunduki	-5146
▁exactly	-5147
▁maskini	-5148
▁meaning	-5149
▁section	-5150
▁utawala	-5151
▁although	-5152
▁increase	-5153
▁investig	-5154
▁kufikiri	-5155
▁kusubiri	-5156
▁planning	-5157
▁tathmini	-5158
▁yaliyomo	-5159
unganishwa	-5160
▁Churchill	-5161
▁condition	-5162
▁mashirika	-5163
▁Government	-5164
▁difference	-5165
▁kuongezeka	-5166
▁kupatikana	-5167
▁uzalishaji	-5168
▁kufurahisha	-5169
▁kujitegemea	-5170
-5	-5171
6.	-5172
:4	-5173
As	-5174
Do	-5175
If	-5176
Ma	-5177
US	-5178
ht	-5179
”.	-5180
BRA	-5181
atr	-5182
uzo	-5183
▁AN	-5184
▁Bu	-5185
▁IT	-5186
▁TO	-5187
BRAK	-5188
days	-5189
gest	-5190
gust	-5191
isti	-5192
itch	-5193
like	-5194
orge	-5195
rura	-5196
umer	-5197
wazi	-5198
▁(19	-5199
▁Ber	-5200
▁Bra	-5201
▁Kus	-5202
▁Los	-5203
▁Mil	-5204
▁Pay	-5205
▁Shi	-5206
▁dry	-5207
▁emb	-5208
▁flu	-5209
▁fol	-5210
▁lim	-5211
▁rid	-5212
▁sla	-5213
▁vol	-5214
aluma	-5215
atili	-5216
idizi	-5217
penzi	-5218
pitia	-5219
spita	-5220
▁East	-5221
▁Fran	-5222
▁Have	-5223
▁Mama	-5224
▁Paul	-5225
▁Wali	-5226
▁anal	-5227
▁capa	-5228
▁dola	-5229
▁enga	-5230
▁fill	-5231
▁foot	-5232
▁loss	-5233
▁meza	-5234
▁misa	-5235
▁rout	-5236
▁suff	-5237
change	-5238
graphy	-5239
hitimu	-5240
idered	-5241
iliana	-5242
inated	-5243
ingizi	-5244
lakini	-5245
peleka	-5246
ruhusu	-5247
▁James	-5248
▁Kikuu	-5249
▁Kituo	-5250
▁Mwaka	-5251
▁madai	-5252
▁mapya	-5253
▁posts	-5254
▁shows	-5255
▁sijui	-5256
▁sites	-5257
▁tamaa	-5258
▁urefu	-5259
▁usawa	-5260
▁ziliz	-5261
aturday	-5262
▁Arella	-5263
▁German	-5264
▁Karibu	-5265
▁forget	-5266
▁higher	-5267
▁kubuni	-5268
▁kujali	-5269
▁kuruka	-5270
▁mabaya	-5271
▁mchang	-5272
▁mwanzo	-5273
▁nearly	-5274
▁notice	-5275
▁nyeupe	-5276
▁points	-5277
▁remind	-5278
▁seeing	-5279
▁travel	-5280
▁wadogo	-5281
BRAKiasa	-5282
ategemea	-5283
endekezo	-5284
ikitisha	-5285
jitahidi	-5286
▁Florida	-5287
▁Sovieti	-5288
▁created	-5289
▁excited	-5290
▁increas	-5291
▁meeting	-5292
▁message	-5293
▁quality	-5294
▁systems	-5295
▁ujasiri	-5296
▁utakuwa	-5297
▁download	-5298
▁inafanya	-5299
▁kugundua	-5300
▁original	-5301
▁uaminifu	-5302
▁wagonjwa	-5303
▁bookmarks	-5304
▁committee	-5305
▁kuhifadhi	-5306
▁political	-5307
▁regarding	-5308
▁unafikiri	-5309
▁washiriki	-5310
▁absolutely	-5311
▁additional	-5312
▁changamoto	-5313
▁ilionekana	-5314
▁kuendeleza	-5315
BRAKiasaurus	-5316
▁application	-5317
▁ushirikiano	-5318
▁requirements	-5319
/2	-5320
2,	-5321
9.	-5322
:2	-5323
CA	-5324
PM	-5325
SS	-5326
dy	-5327
500	-5328
ear	-5329
ema	-5330
gen	-5331
kaa	-5332
rch	-5333
yan	-5334
you	-5335
▁6.	-5336
▁Gi	-5337
▁IS	-5338
▁Uk	-5339
▁Up	-5340
▁iP	-5341
IMWI	-5342
What	-5343
bled	-5344
crib	-5345
cted	-5346
hilo	-5347
imed	-5348
ingu	-5349
lali	-5350
suku	-5351
wany	-5352
wimu	-5353
▁800	-5354
▁Fin	-5355
▁Leo	-5356
▁Maj	-5357
▁Min	-5358
▁Tay	-5359
▁cop	-5360
▁cru	-5361
▁sou	-5362
▁und	-5363
▁vyo	-5364
There	-5365
anaji	-5366
kilia	-5367
sanya	-5368
stadi	-5369
zuizi	-5370
▁NEIL	-5371
▁Njia	-5372
▁code	-5373
▁emot	-5374
▁fish	-5375
▁huyu	-5376
▁kana	-5377
▁kosa	-5378
▁kuzi	-5379
▁kwao	-5380
▁lots	-5381
▁mand	-5382
▁mist	-5383
▁roho	-5384
▁shot	-5385
▁ujao	-5386
choche	-5387
hirini	-5388
▁admin	-5389
▁mpaka	-5390
▁neigh	-5391
▁organ	-5392
▁pursu	-5393
▁smart	-5394
▁trust	-5395
▁users	-5396
jitolea	-5397
logical	-5398
▁Baadhi	-5399
▁Little	-5400
▁action	-5401
▁anyway	-5402
▁celebr	-5403
▁demand	-5404
▁except	-5405
▁filled	-5406
▁finish	-5407
▁kimoja	-5408
▁madogo	-5409
▁member	-5410
▁obtain	-5411
▁polisi	-5412
▁uamuzi	-5413
▁walimu	-5414
▁Angeles	-5415
▁Edition	-5416
▁Novemba	-5417
▁ability	-5418
▁concept	-5419
▁dharura	-5420
▁employe	-5421
▁kipande	-5422
▁leading	-5423
▁medical	-5424
▁milioni	-5425
▁million	-5426
▁msimamo	-5427
▁percent	-5428
▁surpris	-5429
▁towards	-5430
▁usahihi	-5431
▁waiting	-5432
ification	-5433
▁Facebook	-5434
▁Serikali	-5435
▁directly	-5436
▁function	-5437
▁hawawezi	-5438
▁internet	-5439
▁ishirini	-5440
▁magonjwa	-5441
▁military	-5442
▁solution	-5443
▁utunzaji	-5444
▁wanataka	-5445
chapishaji	-5446
▁Usimamizi	-5447
▁beginning	-5448
▁excellent	-5449
▁mahojiano	-5450
▁ufafanuzi	-5451
▁collection	-5452
▁individual	-5453
▁kukusaidia	-5454
▁mkusanyiko	-5455
▁International	-5456
▁consideration	-5457
▁kubadilishana	-5458
Ba	-5459
LA	-5460
ah	-5461
And	-5462
cea	-5463
fia	-5464
irs	-5465
wez	-5466
xic	-5467
▁PC	-5468
arak	-5469
ford	-5470
hist	-5471
imal	-5472
kiti	-5473
omwa	-5474
sequ	-5475
▁10.	-5476
▁Did	-5477
▁Had	-5478
▁Mac	-5479
▁Red	-5480
▁Uli	-5481
▁inj	-5482
▁jar	-5483
▁kal	-5484
▁lin	-5485
▁mix	-5486
▁mji	-5487
▁mot	-5488
▁msh	-5489
▁nga	-5490
▁nod	-5491
▁pun	-5492
▁sli	-5493
arget	-5494
igano	-5495
iring	-5496
ishia	-5497
lying	-5498
penge	-5499
pigwa	-5500
range	-5501
vyote	-5502
▁blan	-5503
▁dear	-5504
▁gave	-5505
▁letu	-5506
▁mine	-5507
▁paid	-5508
▁rate	-5509
▁user	-5510
▁wide	-5511
idhani	-5512
ipment	-5513
katifu	-5514
kusany	-5515
mitted	-5516
▁Maybe	-5517
▁Miles	-5518
▁State	-5519
▁Super	-5520
▁block	-5521
▁brain	-5522
▁bwana	-5523
▁confu	-5524
▁gonna	-5525
▁helps	-5526
▁style	-5527
▁uhuru	-5528
▁umeme	-5529
▁vingi	-5530
hington	-5531
ikiliza	-5532
rection	-5533
spitali	-5534
ulikuwa	-5535
wezesha	-5536
▁August	-5537
▁active	-5538
▁charge	-5539
▁church	-5540
▁danger	-5541
▁dinner	-5542
▁groups	-5543
▁herpes	-5544
▁highly	-5545
▁integr	-5546
▁listen	-5547
▁majibu	-5548
▁mashar	-5549
▁miradi	-5550
▁proced	-5551
▁ustadi	-5552
▁uwongo	-5553
▁virusi	-5554
ambuliwa	-5555
kelezaji	-5556
▁amekuwa	-5557
▁appreci	-5558
▁college	-5559
▁kitanda	-5560
▁kuepuka	-5561
▁maagizo	-5562
▁replied	-5563
▁respond	-5564
▁ubunifu	-5565
▁variety	-5566
▁vitendo	-5567
▁workers	-5568
▁followed	-5569
▁majority	-5570
▁multiple	-5571
▁mwishowe	-5572
▁mzunguko	-5573
▁physical	-5574
▁pictures	-5575
▁Ninapenda	-5576
▁kimataifa	-5577
▁kufurahia	-5578
▁natumaini	-5579
▁Mheshimiwa	-5580
▁Washington	-5581
▁discovered	-5582
▁kushughulikia	-5583
Hi	-5584
My	-5585
So	-5586
St	-5587
▁x	-5588
IPP	-5589
bie	-5590
blo	-5591
gni	-5592
had	-5593
lar	-5594
omb	-5595
pro	-5596
sti	-5597
▁$1	-5598
▁ir	-5599
Shin	-5600
ania	-5601
bles	-5602
cheo	-5603
elfu	-5604
ffee	-5605
gins	-5606
hada	-5607
hand	-5608
hold	-5609
icro	-5610
ises	-5611
lass	-5612
lini	-5613
pang	-5614
pira	-5615
rini	-5616
rufu	-5617
tail	-5618
uzwa	-5619
valu	-5620
▁500	-5621
▁Tha	-5622
▁ard	-5623
▁bal	-5624
▁glo	-5625
▁hum	-5626
▁jud	-5627
▁mia	-5628
▁ord	-5629
▁plu	-5630
▁wen	-5631
actor	-5632
force	-5633
itter	-5634
▁(200	-5635
▁100%	-5636
▁Comp	-5637
▁Mkuu	-5638
▁Ufar	-5639
▁Will	-5640
▁Year	-5641
▁anay	-5642
▁bill	-5643
▁cand	-5644
▁chen	-5645
▁dada	-5646
▁doub	-5647
▁feet	-5648
▁flow	-5649
▁huwa	-5650
▁kill	-5651
▁kiti	-5652
▁ombi	-5653
▁pred	-5654
▁saba	-5655
▁sand	-5656
▁shin	-5657
▁sina	-5658
▁yata	-5659
▁zana	-5660
Shines	-5661
atives	-5662
harini	-5663
mekuwa	-5664
miliki	-5665
oundwa	-5666
umishi	-5667
ustani	-5668
▁Never	-5669
▁Sijui	-5670
▁autom	-5671
▁force	-5672
▁influ	-5673
▁jimbo	-5674
▁kusim	-5675
▁meant	-5676
▁mouth	-5677
▁movie	-5678
▁plans	-5679
▁range	-5680
▁serve	-5681
▁truly	-5682
fikiaji	-5683
inadamu	-5684
itional	-5685
ligious	-5686
pengele	-5687
yarisha	-5688
▁bahari	-5689
▁compla	-5690
▁confir	-5691
▁events	-5692
▁figure	-5693
▁harufu	-5694
▁immedi	-5695
▁jarida	-5696
▁kutaja	-5697
▁levels	-5698
▁mitano	-5699
▁mpenzi	-5700
▁niliyo	-5701
▁screen	-5702
▁skrini	-5703
▁streng	-5704
▁strugg	-5705
▁thread	-5706
▁unique	-5707
▁uuzaji	-5708
▁viwili	-5709
▁worked	-5710
anzishwa	-5711
fortable	-5712
wezekani	-5713
▁English	-5714
▁appears	-5715
▁clients	-5716
▁hifadhi	-5717
▁introdu	-5718
▁payment	-5719
▁reasons	-5720
▁regular	-5721
▁science	-5722
▁telling	-5723
▁vipande	-5724
▁weekend	-5725
▁Ninaweza	-5726
▁Ufaransa	-5727
▁computer	-5728
▁customer	-5729
▁kukutana	-5730
▁nyekundu	-5731
▁recently	-5732
▁responsi	-5733
▁utendaji	-5734
▁vyovyote	-5735
▁wavulana	-5736
▁Christmas	-5737
▁equipment	-5738
▁financial	-5739
▁inahitaji	-5740
▁marketing	-5741
▁mtiririko	-5742
▁shinikizo	-5743
▁wachezaji	-5744
▁wanachama	-5745
fortunately	-5746
▁Ningependa	-5747
▁considered	-5748
▁management	-5749
▁mfanyakazi	-5750
▁experienced	-5751
▁kusikitisha	-5752
▁majadiliano	-5753
▁utekelezaji	-5754
37	-5755
CD	-5756
Si	-5757
ky	-5758
!!!	-5759
Ali	-5760
bal	-5761
gra	-5762
net	-5763
pwa	-5764
▁AP	-5765
▁Cr	-5766
▁HA	-5767
▁Ly	-5768
▁wi	-5769
anyi	-5770
dden	-5771
foot	-5772
gged	-5773
gusa	-5774
ints	-5775
kose	-5776
kusu	-5777
lian	-5778
mers	-5779
onga	-5780
pesi	-5781
rief	-5782
vuta	-5783
▁Bla	-5784
▁Cli	-5785
▁Get	-5786
▁Her	-5787
▁Hod	-5788
▁Hol	-5789
▁Kik	-5790
▁Pan	-5791
▁Wow	-5792
▁dru	-5793
▁gen	-5794
▁gun	-5795
▁mak	-5796
▁pac	-5797
▁sme	-5798
▁tea	-5799
▁tem	-5800
amosi	-5801
aries	-5802
ciple	-5803
ength	-5804
gency	-5805
ikopo	-5806
ikosi	-5807
itain	-5808
mbuzi	-5809
pende	-5810
riday	-5811
vutia	-5812
▁Dese	-5813
▁Hawa	-5814
▁Indi	-5815
▁June	-5816
▁Juni	-5817
▁King	-5818
▁Kuwa	-5819
▁Sisi	-5820
▁bank	-5821
▁base	-5822
▁curi	-5823
▁dest	-5824
▁exec	-5825
▁hang	-5826
▁imag	-5827
▁jump	-5828
▁kika	-5829
▁mifu	-5830
▁mita	-5831
▁nami	-5832
▁seti	-5833
▁soap	-5834
▁subs	-5835
▁tota	-5836
arajio	-5837
baliwa	-5838
ground	-5839
kutana	-5840
ongozo	-5841
▁About	-5842
▁Since	-5843
▁blood	-5844
▁colla	-5845
▁condu	-5846
▁disap	-5847
▁girls	-5848
▁green	-5849
▁impos	-5850
▁kulia	-5851
▁occas	-5852
▁older	-5853
▁plant	-5854
▁smile	-5855
▁speed	-5856
▁tools	-5857
▁total	-5858
▁trade	-5859
▁uanga	-5860
▁yaani	-5861
▁zinaz	-5862
ilities	-5863
jisikia	-5864
▁During	-5865
▁Holmes	-5866
▁Kristo	-5867
▁Mwisho	-5868
▁Tovuti	-5869
▁hawezi	-5870
▁kijani	-5871
▁kizuri	-5872
▁kunywa	-5873
▁kutuma	-5874
▁maelfu	-5875
▁movies	-5876
▁muscle	-5877
▁police	-5878
▁prefer	-5879
▁releas	-5880
▁scient	-5881
▁ubongo	-5882
▁ulinzi	-5883
▁window	-5884
cription	-5885
ondolewa	-5886
▁Britain	-5887
▁Desemba	-5888
▁achieve	-5889
▁average	-5890
▁convers	-5891
▁evening	-5892
▁greater	-5893
▁helpful	-5894
▁kupanda	-5895
▁kuvunja	-5896
▁malengo	-5897
▁married	-5898
▁mchanga	-5899
▁misaada	-5900
▁ninavyo	-5901
▁numbers	-5902
▁opinion	-5903
▁posting	-5904
▁uhalifu	-5905
ambukizwa	-5906
▁Internet	-5907
▁designed	-5908
▁document	-5909
▁evidence	-5910
▁exchange	-5911
▁kuelezea	-5912
▁kukimbia	-5913
▁kutumiwa	-5914
▁mapigano	-5915
▁reported	-5916
▁shukrani	-5917
▁straight	-5918
▁whatever	-5919
▁kupambana	-5920
▁mentioned	-5921
▁religious	-5922
▁bookmarked	-5923
▁inaonyesha	-5924
▁kuwasilisha	-5925
▁televisheni	-5926
fanyabiashara	-5927
AC	-5928
IT	-5929
LY	-5930
OD	-5931
UN	-5932
VE	-5933
cr	-5934
sy	-5935
dle	-5936
dom	-5937
eli	-5938
gaz	-5939
nel	-5940
pat	-5941
ues	-5942
xim	-5943
▁7.	-5944
▁8.	-5945
▁Dr	-5946
▁Fo	-5947
▁Mn	-5948
▁Sh	-5949
..."	-5950
arks	-5951
bama	-5952
ests	-5953
fesa	-5954
host	-5955
huri	-5956
ians	-5957
ison	-5958
juma	-5959
lear	-5960
long	-5961
masi	-5962
reed	-5963
toka	-5964
ukuu	-5965
unia	-5966
vert	-5967
zigo	-5968
ziwa	-5969
▁Acc	-5970
▁Ago	-5971
▁Bas	-5972
▁Pat	-5973
▁Sim	-5974
▁Top	-5975
▁fan	-5976
▁ika	-5977
▁qui	-5978
▁tax	-5979
▁thi	-5980
ajiri	-5981
andao	-5982
arafu	-5983
arily	-5984
ctors	-5985
eraha	-5986
hirik	-5987
indwa	-5988
isema	-5989
oking	-5990
orofa	-5991
ously	-5992
ports	-5993
toaji	-5994
utano	-5995
▁Hist	-5996
▁Kita	-5997
▁Like	-5998
▁Rais	-5999
▁Ryan	-6000
▁Thom	-6001
▁Time	-6002
▁brow	-6003
▁card	-6004
▁copy	-6005
▁crow	-6006
▁debt	-6007
▁dham	-6008
▁inas	-6009
▁join	-6010
▁mata	-6011
▁none	-6012
▁pray	-6013
▁stat	-6014
angany	-6015
gekuwa	-6016
ikubwa	-6017
ipenda	-6018
ripoti	-6019
ubarak	-6020
ularly	-6021
▁Carol	-6022
▁Today	-6023
▁earth	-6024
▁insta	-6025
▁kamba	-6026
▁mahak	-6027
▁mgumu	-6028
▁ndugu	-6029
▁nyama	-6030
▁pages	-6031
▁sanaa	-6032
▁satis	-6033
▁sorry	-6034
▁throw	-6035
▁track	-6036
▁trees	-6037
▁virus	-6038
▁vyako	-6039
baliano	-6040
hindani	-6041
itafuta	-6042
otolewa	-6043
▁Agosti	-6044
▁Friday	-6045
▁Hapana	-6046
▁anajua	-6047
▁bought	-6048
▁chenye	-6049
▁fellow	-6050
▁ground	-6051
▁hasira	-6052
▁hawana	-6053
▁instru	-6054
▁kurasa	-6055
▁majina	-6056
▁mashua	-6057
▁photos	-6058
▁sarafu	-6059
▁supply	-6060
▁vyenye	-6061
▁wajibu	-6062
▁wazuri	-6063
ambazaji	-6064
athiriwa	-6065
▁Angalia	-6066
▁akajibu	-6067
▁akaunti	-6068
▁awesome	-6069
▁finding	-6070
▁foreign	-6071
▁growing	-6072
▁journey	-6073
▁kushoto	-6074
▁methods	-6075
▁mistari	-6076
▁realize	-6077
▁recipes	-6078
▁recogni	-6079
▁strateg	-6080
▁village	-6081
▁wastani	-6082
▁Although	-6083
▁Jumamosi	-6084
▁Sijawahi	-6085
▁activity	-6086
▁akifanya	-6087
▁contract	-6088
▁families	-6089
▁intellig	-6090
▁kujadili	-6091
▁kumaliza	-6092
▁material	-6093
▁mikononi	-6094
▁mwanzoni	-6095
▁negative	-6096
▁progress	-6097
▁provided	-6098
▁starting	-6099
▁surround	-6100
▁unafanya	-6101
▁visiting	-6102
▁Kaskazini	-6103
▁matangazo	-6104
▁recommend	-6105
▁mwanafunzi	-6106
▁production	-6107
▁makubaliano	-6108
▁construction	-6109
▁mchanganyiko	-6110
27	-6111
62	-6112
EC	-6113
RO	-6114
Sa	-6115
ws	-6116
IDS	-6117
hem	-6118
ift	-6119
ium	-6120
lle	-6121
lub	-6122
oke	-6123
tel	-6124
tun	-6125
wed	-6126
zao	-6127
▁23	-6128
▁Gr	-6129
enea	-6130
ered	-6131
hurs	-6132
ield	-6133
ires	-6134
kupa	-6135
more	-6136
over	-6137
resh	-6138
rise	-6139
rops	-6140
roud	-6141
umie	-6142
zake	-6143
zuni	-6144
▁150	-6145
▁Ama	-6146
▁Egy	-6147
▁Its	-6148
▁Reg	-6149
▁Vis	-6150
▁boy	-6151
▁die	-6152
▁est	-6153
▁lit	-6154
▁nor	-6155
▁ran	-6156
▁tro	-6157
▁typ	-6158
▁ult	-6159
▁wel	-6160
bisho	-6161
board	-6162
choka	-6163
ender	-6164
hakik	-6165
lalam	-6166
lists	-6167
oring	-6168
othes	-6169
▁Corp	-6170
▁Does	-6171
▁Keep	-6172
▁Kuto	-6173
▁News	-6174
▁Post	-6175
▁Shar	-6176
▁Yesu	-6177
▁ames	-6178
▁cast	-6179
▁chat	-6180
▁chem	-6181
▁goal	-6182
▁hurt	-6183
▁inno	-6184
▁kuch	-6185
▁kuua	-6186
▁mass	-6187
▁mume	-6188
▁norm	-6189
▁plat	-6190
▁prim	-6191
▁shar	-6192
▁waka	-6193
cember	-6194
idents	-6195
tolewa	-6196
▁April	-6197
▁Hello	-6198
▁Jesus	-6199
▁ardhi	-6200
▁benki	-6201
▁built	-6202
▁click	-6203
▁dream	-6204
▁haita	-6205
▁kumwa	-6206
▁kuuza	-6207
▁mauzo	-6208
▁mkali	-6209
▁model	-6210
▁moder	-6211
▁moved	-6212
▁parts	-6213
▁reach	-6214
▁saved	-6215
▁separ	-6216
▁tears	-6217
▁viatu	-6218
isaidia	-6219
▁France	-6220
▁Health	-6221
▁Huduma	-6222
▁Monday	-6223
▁Sheria	-6224
▁accomp	-6225
▁cancer	-6226
▁halali	-6227
▁inatoa	-6228
▁kidini	-6229
▁kigeni	-6230
▁latest	-6231
▁mareke	-6232
▁minute	-6233
▁mipaka	-6234
▁mobile	-6235
▁nation	-6236
▁nyeusi	-6237
▁paying	-6238
▁played	-6239
▁threat	-6240
▁uchumi	-6241
▁unless	-6242
andamano	-6243
chofanya	-6244
endekeza	-6245
kabiliwa	-6246
▁Mubarak	-6247
▁angalia	-6248
▁atakuwa	-6249
▁benefit	-6250
▁digital	-6251
▁earlier	-6252
▁enjoyed	-6253
▁husband	-6254
▁kichawi	-6255
▁kimwili	-6256
▁limited	-6257
▁overall	-6258
▁schools	-6259
▁version	-6260
kurugenzi	-6261
wasilisha	-6262
▁February	-6263
▁Kulikuwa	-6264
▁November	-6265
▁anapaswa	-6266
▁baharini	-6267
▁features	-6268
▁husaidia	-6269
▁includes	-6270
▁kunaweza	-6271
▁mandhari	-6272
▁projects	-6273
▁teachers	-6274
▁ufikiaji	-6275
▁wanaenda	-6276
▁challenge	-6277
▁assessment	-6278
▁kibinadamu	-6279
▁successful	-6280
▁marekebisho	-6281
▁vitambulisho	-6282
',	-6283
1.	-6284
Tu	-6285
hh	-6286
ym	-6287
814	-6288
Tun	-6289
cil	-6290
ech	-6291
fit	-6292
hia	-6293
hui	-6294
ior	-6295
pri	-6296
vol	-6297
zen	-6298
▁($	-6299
▁80	-6300
▁Mp	-6301
▁Ny	-6302
▁ST	-6303
▁Ti	-6304
▁Wi	-6305
▁er	-6306
▁ug	-6307
▁va	-6308
/201	-6309
Care	-6310
amin	-6311
amka	-6312
cose	-6313
ffic	-6314
iced	-6315
ipya	-6316
kafu	-6317
kets	-6318
late	-6319
lele	-6320
lete	-6321
rict	-6322
tics	-6323
tzer	-6324
what	-6325
▁(2)	-6326
▁Kif	-6327
▁Lea	-6328
▁Mel	-6329
▁Mer	-6330
▁Mod	-6331
▁Sch	-6332
▁Sio	-6333
▁Ver	-6334
▁ado	-6335
▁log	-6336
▁pan	-6337
▁sar	-6338
▁tut	-6339
▁uma	-6340
andaa	-6341
bores	-6342
cheka	-6343
cheza	-6344
comes	-6345
eleza	-6346
esema	-6347
fered	-6348
house	-6349
inary	-6350
ondoa	-6351
ottom	-6352
sacea	-6353
sages	-6354
udhui	-6355
ukumu	-6356
vunja	-6357
while	-6358
▁2015	-6359
▁KIPP	-6360
▁Kati	-6361
▁Last	-6362
▁Love	-6363
▁Tume	-6364
▁Wiki	-6365
▁aibu	-6366
▁alit	-6367
▁cheo	-6368
▁dele	-6369
▁died	-6370
▁forg	-6371
▁guar	-6372
▁hebu	-6373
▁inat	-6374
▁king	-6375
▁kufa	-6376
▁lack	-6377
▁ndoa	-6378
▁raia	-6379
▁rais	-6380
▁vyao	-6381
▁wear	-6382
▁yenu	-6383
▁zuri	-6384
amasha	-6385
icated	-6386
idence	-6387
induzi	-6388
ingana	-6389
layton	-6390
otajwa	-6391
otumia	-6392
▁Black	-6393
▁Mambo	-6394
▁Thurs	-6395
▁Urusi	-6396
▁assum	-6397
▁began	-6398
▁chama	-6399
▁doubt	-6400
▁dress	-6401
▁explo	-6402
▁haina	-6403
▁https	-6404
▁kuham	-6405
▁licha	-6406
▁miles	-6407
▁relax	-6408
▁stage	-6409
▁stick	-6410
▁subst	-6411
▁sweet	-6412
▁whose	-6413
asaidia	-6414
ulitzer	-6415
waambia	-6416
▁County	-6417
▁Kanisa	-6418
▁Lazima	-6419
▁Shiori	-6420
▁Sunday	-6421
▁allows	-6422
▁commer	-6423
▁huruma	-6424
▁huzuni	-6425
▁income	-6426
▁indeed	-6427
▁kuamua	-6428
▁kuhisi	-6429
▁kujibu	-6430
▁method	-6431
▁modern	-6432
▁ninayo	-6433
▁option	-6434
▁placed	-6435
▁plenty	-6436
▁sabuni	-6437
▁safety	-6438
▁sakafu	-6439
▁secret	-6440
▁shingo	-6441
▁slight	-6442
▁ulivyo	-6443
antastic	-6444
bilities	-6445
kamilika	-6446
▁Central	-6447
▁General	-6448
▁Madonna	-6449
▁Mkutano	-6450
▁Taarifa	-6451
▁allowed	-6452
▁appoint	-6453
▁brother	-6454
▁clearly	-6455
▁correct	-6456
▁despite	-6457
▁dhamana	-6458
▁happens	-6459
▁incredi	-6460
▁kitaifa	-6461
▁kushuka	-6462
▁missing	-6463
▁mwalimu	-6464
▁purpose	-6465
▁rosacea	-6466
▁society	-6467
▁stopped	-6468
▁student	-6469
▁tunavyo	-6470
▁ubaguzi	-6471
▁urafiki	-6472
▁walivyo	-6473
atikanaji	-6474
▁December	-6475
▁Februari	-6476
▁Saturday	-6477
▁amefanya	-6478
▁articles	-6479
▁decision	-6480
▁familiar	-6481
▁kufanywa	-6482
▁kuifanya	-6483
▁kuruhusu	-6484
▁maintain	-6485
▁mashtaka	-6486
▁nimepata	-6487
▁shipping	-6488
▁ushirika	-6489
▁wamekuwa	-6490
pendekezwa	-6491
▁Christian	-6492
▁according	-6493
▁alipokuwa	-6494
▁essential	-6495
▁hospitali	-6496
▁kushindwa	-6497
▁matarajio	-6498
▁president	-6499
▁therefore	-6500
▁thousands	-6501
▁uwekezaji	-6502
▁wasichana	-6503
▁maandamano	-6504
▁haiwezekani	-6505
▁inapatikana	-6506
▁independent	-6507
▁upatikanaji	-6508
▁particularly	-6509
:0	-6510
?!	-6511
AM	-6512
UT	-6513
fs	-6514
cts	-6515
ems	-6516
gua	-6517
hum	-6518
ino	-6519
kie	-6520
rip	-6521
sia	-6522
ssi	-6523
uhi	-6524
via	-6525
▁(3	-6526
▁2,	-6527
▁22	-6528
▁28	-6529
▁Im	-6530
▁Ko	-6531
▁il	-6532
Basi	-6533
Nita	-6534
They	-6535
beba	-6536
cken	-6537
esty	-6538
hest	-6539
hips	-6540
imio	-6541
jiti	-6542
kama	-6543
lili	-6544
omun	-6545
otic	-6546
rant	-6547
rudi	-6548
term	-6549
umua	-6550
ziri	-6551
▁Dak	-6552
▁Ele	-6553
▁Hel	-6554
▁Kim	-6555
▁Net	-6556
▁Pic	-6557
▁Wan	-6558
▁bag	-6559
▁ban	-6560
▁box	-6561
▁civ	-6562
▁fal	-6563
▁glu	-6564
▁ing	-6565
▁kuz	-6566
▁mlo	-6567
▁red	-6568
▁san	-6569
▁sco	-6570
▁ton	-6571
Bwana	-6572
araja	-6573
arter	-6574
atory	-6575
chafu	-6576
chers	-6577
dered	-6578
fanyi	-6579
ikaji	-6580
imiza	-6581
itude	-6582
jumaa	-6583
ombea	-6584
uniko	-6585
zimio	-6586
▁Hope	-6587
▁Moja	-6588
▁Open	-6589
▁Scot	-6590
▁Serv	-6591
▁Viet	-6592
▁alis	-6593
▁chai	-6594
▁fans	-6595
▁flat	-6596
▁ilit	-6597
▁kisu	-6598
▁load	-6599
▁miss	-6600
▁mkoa	-6601
▁ride	-6602
▁safu	-6603
▁sens	-6604
▁thus	-6605
▁tisa	-6606
▁upya	-6607
▁vict	-6608
▁viti	-6609
▁warm	-6610
▁wito	-6611
asisha	-6612
barani	-6613
fakari	-6614
hamisi	-6615
isimko	-6616
mbamba	-6617
mptoms	-6618
pangwa	-6619
rences	-6620
shinda	-6621
sukumo	-6622
terday	-6623
▁Colle	-6624
▁Miaka	-6625
▁Misri	-6626
▁Mnamo	-6627
▁Najua	-6628
▁Other	-6629
▁Peter	-6630
▁Shule	-6631
▁Union	-6632
▁Where	-6633
▁brand	-6634
▁coord	-6635
▁eligi	-6636
▁evalu	-6637
▁faili	-6638
▁goals	-6639
▁grand	-6640
▁heavy	-6641
▁imple	-6642
▁jicho	-6643
▁karne	-6644
▁kifaa	-6645
▁kunyo	-6646
▁kupan	-6647
▁kuvaa	-6648
▁laugh	-6649
▁lines	-6650
▁mzima	-6651
▁names	-6652
▁nimes	-6653
▁seven	-6654
▁views	-6655
▁vituo	-6656
▁worry	-6657
▁worst	-6658
kufanya	-6659
▁Ijumaa	-6660
▁Master	-6661
▁School	-6662
▁advent	-6663
▁baraza	-6664
▁chanzo	-6665
▁dalili	-6666
▁doctor	-6667
▁effici	-6668
▁flight	-6669
▁huanza	-6670
▁kadiri	-6671
▁kanisa	-6672
▁kilele	-6673
▁length	-6674
▁resist	-6675
▁rights	-6676
▁sister	-6677
▁spread	-6678
▁street	-6679
▁sukari	-6680
▁twenty	-6681
▁ukumbi	-6682
▁videos	-6683
▁vipimo	-6684
▁walked	-6685
ambukizo	-6686
babishwa	-6687
ingekuwa	-6688
omunisti	-6689
▁Alisema	-6690
▁Clayton	-6691
▁Israeli	-6692
▁Kumbuka	-6693
▁Twitter	-6694
▁bustani	-6695
▁carried	-6696
▁complex	-6697
▁dirisha	-6698
▁endelea	-6699
▁haiwezi	-6700
▁healthy	-6701
▁herself	-6702
▁jaribio	-6703
▁kumwona	-6704
▁kusonga	-6705
▁leaders	-6706
▁machine	-6707
▁madhara	-6708
▁mgonjwa	-6709
▁msukumo	-6710
▁nyepesi	-6711
▁offered	-6712
▁partner	-6713
▁thabiti	-6714
▁utapata	-6715
▁vyakula	-6716
▁weather	-6717
▁younger	-6718
anganyifu	-6719
hirikisho	-6720
▁Alhamisi	-6721
▁Septemba	-6722
▁Thursday	-6723
▁approved	-6724
▁cleaning	-6725
▁director	-6726
▁hakukuwa	-6727
▁hawakuwa	-6728
▁kukabili	-6729
▁kukamata	-6730
▁kutumika	-6731
▁msisimko	-6732
▁mtumiaji	-6733
▁mwenyeji	-6734
▁mwongozo	-6735
▁possibly	-6736
▁pressure	-6737
▁previous	-6738
▁purchase	-6739
▁tabasamu	-6740
▁ungekuwa	-6741
▁usingizi	-6742
▁waziwazi	-6743
orodheshwa	-6744
▁Sometimes	-6745
▁agreement	-6746
▁highlight	-6747
▁implement	-6748
▁kaskazini	-6749
▁kukumbuka	-6750
▁nikifanya	-6751
▁seriously	-6752
▁suggested	-6753
▁upendeleo	-6754
▁barabarani	-6755
▁impossible	-6756
▁investment	-6757
▁ninahitaji	-6758
▁usambazaji	-6759
▁husababisha	-6760
▁immediately	-6761
▁utambulisho	-6762
▁kinachotokea	-6763
▁kuthibitisha	-6764
▁professional	-6765
▁Unfortunately	-6766
**	-6767
19	-6768
?)	-6769
Ku	-6770
Oh	-6771
TM	-6772
VU	-6773
]]	-6774
▁=	-6775
▁?	-6776
14.	-6777
For	-6778
bla	-6779
bul	-6780
cep	-6781
ena	-6782
ern	-6783
hop	-6784
ile	-6785
mod	-6786
new	-6787
oko	-6788
reg	-6789
see	-6790
sen	-6791
zes	-6792
▁31	-6793
▁AC	-6794
▁Di	-6795
▁Ji	-6796
▁LO	-6797
▁Mc	-6798
▁md	-6799
adio	-6800
alid	-6801
ared	-6802
care	-6803
cast	-6804
chen	-6805
file	-6806
gepo	-6807
hika	-6808
inti	-6809
lahi	-6810
omen	-6811
oted	-6812
pers	-6813
raid	-6814
rena	-6815
wetu	-6816
ysis	-6817
▁193	-6818
▁197	-6819
▁App	-6820
▁Den	-6821
▁End	-6822
▁Hon	-6823
▁LNG	-6824
▁Lee	-6825
▁Mem	-6826
▁Mos	-6827
▁Rik	-6828
▁Sen	-6829
▁TIP	-6830
▁VVU	-6831
▁Wak	-6832
▁anx	-6833
▁hap	-6834
▁jik	-6835
▁les	-6836
▁mna	-6837
▁pus	-6838
▁ret	-6839
▁uny	-6840
apili	-6841
arden	-6842
athan	-6843
atoka	-6844
blogu	-6845
cribe	-6846
eleke	-6847
fundi	-6848
hauri	-6849
imate	-6850
kosea	-6851
order	-6852
pesha	-6853
ribut	-6854
rithi	-6855
thday	-6856
tural	-6857
uguzi	-6858
undry	-6859
undwa	-6860
usion	-6861
▁Char	-6862
▁Cont	-6863
▁Hebu	-6864
▁High	-6865
▁Lord	-6866
▁Make	-6867
▁anim	-6868
▁bath	-6869
▁bili	-6870
▁born	-6871
▁dama	-6872
▁jobs	-6873
▁kavu	-6874
▁lita	-6875
▁mark	-6876
▁mbio	-6877
▁niwe	-6878
▁reve	-6879
▁sala	-6880
▁scen	-6881
▁song	-6882
▁spot	-6883
▁text	-6884
▁tree	-6885
Hakuna	-6886
ambiwa	-6887
bourne	-6888
cation	-6889
chimba	-6890
coming	-6891
gawany	-6892
itable	-6893
jengwa	-6894
parent	-6895
rekodi	-6896
vation	-6897
▁Insta	-6898
▁Ulimw	-6899
▁Which	-6900
▁Willi	-6901
▁ahead	-6902
▁binti	-6903
▁bound	-6904
▁broad	-6905
▁categ	-6906
▁daugh	-6907
▁dhana	-6908
▁drama	-6909
▁drive	-6910
▁ended	-6911
▁floor	-6912
▁folks	-6913
▁hatia	-6914
▁hotel	-6915
▁jipya	-6916
▁kwetu	-6917
▁limit	-6918
▁minds	-6919
▁mkuru	-6920
▁mteja	-6921
▁mwake	-6922
▁packa	-6923
▁rapid	-6924
▁shoot	-6925
▁techn	-6926
▁trail	-6927
▁uzazi	-6928
▁yours	-6929
hamiaji	-6930
igizaji	-6931
kuambia	-6932
ountain	-6933
unguzwa	-6934
vention	-6935
▁Kusini	-6936
▁asking	-6937
▁broken	-6938
▁corner	-6939
▁crypto	-6940
▁farasi	-6941
▁hotuba	-6942
▁jikoni	-6943
▁journa	-6944
▁juhudi	-6945
▁killed	-6946
▁kujaza	-6947
▁miongo	-6948
▁mwenzi	-6949
▁payday	-6950
▁region	-6951
▁source	-6952
▁target	-6953
▁temple	-6954
▁useful	-6955
▁walipo	-6956
▁wazima	-6957
▁writer	-6958
kubaliwa	-6959
▁British	-6960
▁Hodgepo	-6961
▁Kampuni	-6962
▁attract	-6963
▁command	-6964
▁curious	-6965
▁imagine	-6966
▁knowing	-6967
▁kufunga	-6968
▁managed	-6969
▁mapishi	-6970
▁matunda	-6971
▁mpendwa	-6972
▁parties	-6973
▁players	-6974
▁prepare	-6975
▁reached	-6976
▁readers	-6977
▁sayansi	-6978
▁sitting	-6979
▁taasisi	-6980
▁wakubwa	-6981
zingatiwa	-6982
zungumzia	-6983
▁Jumapili	-6984
▁approach	-6985
▁appropri	-6986
▁eligible	-6987
▁exercise	-6988
▁expected	-6989
▁kuharibu	-6990
▁mchezaji	-6991
▁property	-6992
▁sijawahi	-6993
▁software	-6994
▁strength	-6995
▁terrible	-6996
▁vacation	-6997
▁wanadamu	-6998
▁watching	-6999
hibitishwa	-7000
▁establish	-7001
▁inachukua	-7002
▁kukusanya	-7003
▁mashabiki	-7004
▁mwanadamu	-7005
▁transport	-7006
▁maambukizo	-7007
▁mkurugenzi	-7008
▁profession	-7009
▁zilizopita	-7010
▁comfortable	-7011
▁experiences	-7012
▁kukabiliana	-7013
▁kutengeneza	-7014
▁uchapishaji	-7015
▁organization	-7016
!)	-7017
,'	-7018
12	-7019
53	-7020
6,	-7021
Ed	-7022
Hu	-7023
UK	-7024
fl	-7025
fy	-7026
oe	-7027
rs	-7028
sc	-7029
,--	-7030
eah	-7031
eal	-7032
ero	-7033
gha	-7034
ids	-7035
isl	-7036
jea	-7037
las	-7038
mbo	-7039
ook	-7040
vey	-7041
▁3,	-7042
▁60	-7043
▁[/	-7044
▁[[	-7045
▁du	-7046
Kuna	-7047
anii	-7048
bini	-7049
blog	-7050
cape	-7051
down	-7052
fisa	-7053
gent	-7054
gues	-7055
hadi	-7056
illy	-7057
jira	-7058
mavu	-7059
rili	-7060
siri	-7061
that	-7062
uals	-7063
uiya	-7064
utwa	-7065
vest	-7066
vuli	-7067
wood	-7068
▁196	-7069
▁Bio	-7070
▁Cat	-7071
▁Del	-7072
▁Kuu	-7073
▁Mor	-7074
▁Tex	-7075
▁Vid	-7076
▁Whe	-7077
▁Yet	-7078
▁fam	-7079
▁gas	-7080
▁hom	-7081
▁hup	-7082
▁kem	-7083
▁nur	-7084
▁sil	-7085
▁sir	-7086
▁wid	-7087
.....	-7088
atani	-7089
atiba	-7090
based	-7091
ening	-7092
fadha	-7093
field	-7094
ichwa	-7095
ionek	-7096
ordic	-7097
orial	-7098
orter	-7099
pendi	-7100
press	-7101
ubiri	-7102
ublic	-7103
udani	-7104
umili	-7105
umiza	-7106
utive	-7107
wards	-7108
zamia	-7109
▁Anni	-7110
▁Book	-7111
▁Fore	-7112
▁Free	-7113
▁Good	-7114
▁Word	-7115
▁Writ	-7116
▁beat	-7117
▁bodi	-7118
▁duni	-7119
▁firm	-7120
▁hana	-7121
▁hate	-7122
▁holi	-7123
▁kilo	-7124
▁kima	-7125
▁kodi	-7126
▁kuwe	-7127
▁meal	-7128
▁mika	-7129
▁onge	-7130
▁race	-7131
▁rain	-7132
▁sija	-7133
▁soul	-7134
▁vast	-7135
▁vent	-7136
▁visi	-7137
▁wawe	-7138
Tazama	-7139
hariri	-7140
ingiza	-7141
itness	-7142
mbulio	-7143
pokuja	-7144
vision	-7145
▁Liber	-7146
▁Sugar	-7147
▁Times	-7148
▁afisa	-7149
▁award	-7150
▁basic	-7151
▁blogu	-7152
▁compa	-7153
▁faith	-7154
▁forum	-7155
▁fresh	-7156
▁fully	-7157
▁funny	-7158
▁grade	-7159
▁hauta	-7160
▁items	-7161
▁kujit	-7162
▁kukua	-7163
▁kundi	-7164
▁kurid	-7165
▁laini	-7166
▁makuu	-7167
▁minne	-7168
▁moral	-7169
▁mpira	-7170
▁nafsi	-7171
▁occur	-7172
▁posta	-7173
▁proud	-7174
▁quiet	-7175
▁rates	-7176
▁rules	-7177
▁terms	-7178
▁trave	-7179
▁twice	-7180
▁types	-7181
▁uliot	-7182
▁unayo	-7183
▁usual	-7184
chochea	-7185
hadhari	-7186
▁Aprili	-7187
▁Famili	-7188
▁Kuhusu	-7189
▁Second	-7190
▁academ	-7191
▁afraid	-7192
▁arrest	-7193
▁bandia	-7194
▁behavi	-7195
▁breath	-7196
▁decide	-7197
▁determ	-7198
▁expert	-7199
▁ghafla	-7200
▁growth	-7201
▁hapana	-7202
▁hawata	-7203
▁hupata	-7204
▁kijivu	-7205
▁kukosa	-7206
▁kukupa	-7207
▁kusudi	-7208
▁maziwa	-7209
▁memory	-7210
▁mikopo	-7211
▁places	-7212
▁schedu	-7213
▁square	-7214
▁strike	-7215
▁sudden	-7216
▁umbali	-7217
▁watatu	-7218
▁winter	-7219
▁Vietnam	-7220
▁bonyeza	-7221
▁collect	-7222
▁covered	-7223
▁disease	-7224
▁economy	-7225
▁helping	-7226
▁kifungu	-7227
▁kupakia	-7228
▁kutatua	-7229
▁leaving	-7230
▁machozi	-7231
▁mataifa	-7232
▁mistake	-7233
▁mkononi	-7234
▁neither	-7235
▁opening	-7236
▁replace	-7237
▁totally	-7238
▁viwanda	-7239
▁willing	-7240
▁Carolina	-7241
▁Jumatatu	-7242
▁alifanya	-7243
▁anapenda	-7244
▁binadamu	-7245
▁kuanguka	-7246
▁kumfanya	-7247
▁kupigana	-7248
▁kuzaliwa	-7249
▁national	-7250
▁released	-7251
▁symptoms	-7252
▁taratibu	-7253
▁vinaweza	-7254
▁viongozi	-7255
▁wahusika	-7256
▁direction	-7257
▁employees	-7258
▁infection	-7259
▁influence	-7260
▁interests	-7261
▁kujitolea	-7262
▁otherwise	-7263
▁perfectly	-7264
▁principle	-7265
▁represent	-7266
▁tunapaswa	-7267
▁ushawishi	-7268
▁wataalamu	-7269
▁zinapaswa	-7270
▁Kiingereza	-7271
▁assistance	-7272
▁associated	-7273
▁ilivyokuwa	-7274
▁inayofuata	-7275
▁personally	-7276
▁responsible	-7277
▁kulinganisha	-7278
▁specifically	-7279
▁international	-7280
▁zinazohusiana	-7281
▁wafanyabiashara	-7282
-8	-7283
-9	-7284
4)	-7285
?.	-7286
IA	-7287
MR	-7288
ev	-7289
▁+	-7290
-57	-7291
:00	-7292
But	-7293
cra	-7294
emp	-7295
fin	-7296
gno	-7297
irk	-7298
oci	-7299
rad	-7300
▁29	-7301
▁48	-7302
▁5,	-7303
▁70	-7304
▁AR	-7305
▁Ep	-7306
▁Fi	-7307
▁Pi	-7308
▁TV	-7309
▁pm	-7310
-237	-7311
Mimi	-7312
Nime	-7313
cius	-7314
dala	-7315
eder	-7316
face	-7317
habu	-7318
hini	-7319
ilio	-7320
imea	-7321
itoa	-7322
kins	-7323
lipa	-7324
nown	-7325
onya	-7326
road	-7327
safa	-7328
vere	-7329
zens	-7330
zika	-7331
▁14.	-7332
▁16,	-7333
▁Bet	-7334
▁Blu	-7335
▁Cru	-7336
▁Mta	-7337
▁NOT	-7338
▁Pri	-7339
▁Rob	-7340
▁Sci	-7341
▁Tur	-7342
▁Wao	-7343
▁awe	-7344
▁bio	-7345
▁coo	-7346
▁cup	-7347
▁hab	-7348
▁ice	-7349
▁ket	-7350
▁kil	-7351
▁lif	-7352
▁mur	-7353
▁nar	-7354
▁ver	-7355
▁www	-7356
[...]	-7357
ahidi	-7358
ambie	-7359
aming	-7360
ctive	-7361
fsiri	-7362
funua	-7363
going	-7364
iland	-7365
iling	-7366
iment	-7367
itiza	-7368
kuaji	-7369
lines	-7370
okezo	-7371
phone	-7372
pinga	-7373
pired	-7374
poses	-7375
ronic	-7376
soaji	-7377
uhiwa	-7378
vunia	-7379
▁2014	-7380
▁Down	-7381
▁Gold	-7382
▁Kent	-7383
▁Lear	-7384
▁Mike	-7385
▁Pili	-7386
▁Poli	-7387
▁Port	-7388
▁Read	-7389
▁acqu	-7390
▁alij	-7391
▁anas	-7392
▁army	-7393
▁bend	-7394
▁boys	-7395
▁cock	-7396
▁crim	-7397
▁ends	-7398
▁file	-7399
▁gain	-7400
▁kifa	-7401
▁kona	-7402
▁milk	-7403
▁moti	-7404
▁onto	-7405
▁path	-7406
▁seat	-7407
▁sett	-7408
▁tend	-7409
▁tone	-7410
▁tupu	-7411
▁usta	-7412
▁yeah	-7413
active	-7414
ambuzi	-7415
anyasa	-7416
atokea	-7417
chukia	-7418
colate	-7419
dience	-7420
elekea	-7421
ession	-7422
estern	-7423
fanana	-7424
herehe	-7425
hiniki	-7426
husiwa	-7427
jadili	-7428
levant	-7429
logies	-7430
onight	-7431
urushi	-7432
▁Mexic	-7433
▁Rohan	-7434
▁Texas	-7435
▁Under	-7436
▁Zaidi	-7437
▁alita	-7438
▁bless	-7439
▁chupa	-7440
▁color	-7441
▁cried	-7442
▁enter	-7443
▁fruit	-7444
▁ghost	-7445
▁inchi	-7446
▁indie	-7447
▁jengo	-7448
▁kujis	-7449
▁kuung	-7450
▁legal	-7451
▁liked	-7452
▁magaz	-7453
▁minor	-7454
▁ninas	-7455
▁notes	-7456
▁nyota	-7457
▁nzima	-7458
▁scene	-7459
▁shown	-7460
▁steps	-7461
▁train	-7462
▁wapya	-7463
-237-57	-7464
aruhusu	-7465
estival	-7466
funikwa	-7467
itution	-7468
mwambia	-7469
▁Associ	-7470
▁Baraza	-7471
▁Habari	-7472
▁Lucius	-7473
▁Nordic	-7474
▁askari	-7475
▁attack	-7476
▁bottom	-7477
▁caught	-7478
▁coffee	-7479
▁dijiti	-7480
▁easier	-7481
▁former	-7482
▁hoteli	-7483
▁infect	-7484
▁kalori	-7485
▁kinywa	-7486
▁kunyoa	-7487
▁kutaka	-7488
▁kutofa	-7489
▁manage	-7490
▁master	-7491
▁mental	-7492
▁mifano	-7493
▁milele	-7494
▁ninapo	-7495
▁normal	-7496
▁player	-7497
▁popote	-7498
▁raised	-7499
▁tasnia	-7500
▁techni	-7501
▁temper	-7502
amilisha	-7503
entially	-7504
kusaidia	-7505
▁Another	-7506
▁Because	-7507
▁January	-7508
▁courses	-7509
▁driving	-7510
▁duniani	-7511
▁effects	-7512
▁express	-7513
▁keeping	-7514
▁kugeuza	-7515
▁kulinda	-7516
▁kumbuka	-7517
▁kuuliza	-7518
▁letters	-7519
▁lingine	-7520
▁maamuzi	-7521
▁magical	-7522
▁maudhui	-7523
▁measure	-7524
▁pattern	-7525
▁sanduku	-7526
▁strange	-7527
▁takwimu	-7528
▁traffic	-7529
▁yenyewe	-7530
pendekeza	-7531
wakilisha	-7532
wasiliana	-7533
▁Corporal	-7534
▁European	-7535
▁Mwishowe	-7536
▁Shukrani	-7537
▁Thailand	-7538
▁aliuliza	-7539
▁anafanya	-7540
▁answered	-7541
▁creating	-7542
▁guarante	-7543
▁kusimama	-7544
▁mtaalamu	-7545
▁powerful	-7546
▁standard	-7547
▁standing	-7548
▁uandishi	-7549
▁umefanya	-7550
▁watakuwa	-7551
▁Instagram	-7552
▁Melbourne	-7553
▁September	-7554
▁Ulimwengu	-7555
▁entertain	-7556
▁fantastic	-7557
▁generally	-7558
▁happening	-7559
▁kukuambia	-7560
▁kutangaza	-7561
▁ningekuwa	-7562
▁nyembamba	-7563
▁shambulio	-7564
▁statement	-7565
▁Hodgepodge	-7566
▁characters	-7567
▁discussion	-7568
▁inategemea	-7569
▁kuhudhuria	-7570
▁kutathmini	-7571
▁nikitafuta	-7572
▁nilipokuwa	-7573
▁procedures	-7574
▁wanaofanya	-7575
▁performance	-7576
▁zinaonekana	-7577
▁kubadilishwa	-7578
-3	-7579
.2	-7580
77	-7581
LT	-7582
No	-7583
PC	-7584
kw	-7585
aks	-7586
bao	-7587
cul	-7588
cur	-7589
jit	-7590
lew	-7591
ops	-7592
sop	-7593
van	-7594
▁1)	-7595
▁32	-7596
▁34	-7597
▁AM	-7598
▁OF	-7599
▁PM	-7600
▁Py	-7601
▁Ya	-7602
▁gh	-7603
Just	-7604
burg	-7605
chel	-7606
cles	-7607
data	-7608
dudu	-7609
fact	-7610
htas	-7611
laba	-7612
mate	-7613
noon	-7614
ower	-7615
peni	-7616
race	-7617
rage	-7618
roid	-7619
tuma	-7620
used	-7621
well	-7622
zote	-7623
▁195	-7624
▁AND	-7625
▁Bea	-7626
▁Bib	-7627
▁Bob	-7628
▁Cor	-7629
▁Jen	-7630
▁Kut	-7631
▁Mag	-7632
▁Tal	-7633
▁Tri	-7634
▁Uwe	-7635
▁Val	-7636
▁bru	-7637
▁ded	-7638
▁gre	-7639
▁hen	-7640
▁ign	-7641
▁kno	-7642
▁nfl	-7643
▁oce	-7644
▁psy	-7645
▁pul	-7646
▁tis	-7647
▁ule	-7648
▁wed	-7649
▁wis	-7650
Ndiyo	-7651
angle	-7652
ikuwa	-7653
ilaya	-7654
inton	-7655
isoma	-7656
isted	-7657
jumbe	-7658
never	-7659
night	-7660
okras	-7661
ommod	-7662
rench	-7663
sikia	-7664
unguo	-7665
which	-7666
▁Alex	-7667
▁Buff	-7668
▁Kris	-7669
▁Mpya	-7670
▁Wata	-7671
▁Wewe	-7672
▁anam	-7673
▁anno	-7674
▁dogs	-7675
▁doll	-7676
▁evil	-7677
▁harm	-7678
▁heat	-7679
▁kifu	-7680
▁kuko	-7681
▁legs	-7682
▁meat	-7683
▁mguu	-7684
▁nuru	-7685
▁pair	-7686
▁park	-7687
▁poss	-7688
▁rein	-7689
▁soda	-7690
▁tuki	-7691
▁umes	-7692
▁wall	-7693
▁weak	-7694
▁whis	-7695
▁wild	-7696
adhili	-7697
cribed	-7698
hocheo	-7699
inking	-7700
isahau	-7701
ission	-7702
monstr	-7703
ondari	-7704
ondoni	-7705
pofika	-7706
ribute	-7707
▁Fedha	-7708
▁Hatua	-7709
▁Right	-7710
▁Riker	-7711
▁ahadi	-7712
▁ajira	-7713
▁apart	-7714
▁ataka	-7715
▁aware	-7716
▁chair	-7717
▁court	-7718
▁cream	-7719
▁facts	-7720
▁films	-7721
▁forms	-7722
▁frequ	-7723
▁gives	-7724
▁grant	-7725
▁hauku	-7726
▁idara	-7727
▁image	-7728
▁kifua	-7729
▁kimya	-7730
▁kiume	-7731
▁maili	-7732
▁medic	-7733
▁micro	-7734
▁ndiye	-7735
▁ngazi	-7736
▁ngono	-7737
▁numer	-7738
▁pregn	-7739
▁risks	-7740
▁smell	-7741
▁teams	-7742
▁theme	-7743
▁tooth	-7744
▁tough	-7745
▁umati	-7746
▁wanat	-7747
Nadhani	-7748
anganya	-7749
atembea	-7750
chotaka	-7751
handisi	-7752
heshimu	-7753
hilosop	-7754
htasari	-7755
iration	-7756
liament	-7757
okrasia	-7758
ongezwa	-7759
pective	-7760
shukuru	-7761
tumikia	-7762
vinjari	-7763
▁Amazon	-7764
▁Mexico	-7765
▁Mwanam	-7766
▁Social	-7767
▁Watoto	-7768
▁altern	-7769
▁attend	-7770
▁candid	-7771
▁caused	-7772
▁center	-7773
▁closed	-7774
▁desire	-7775
▁device	-7776
▁fortun	-7777
▁hoping	-7778
▁kijiji	-7779
▁kusini	-7780
▁kutupa	-7781
▁kuwapa	-7782
▁makazi	-7783
▁mazoea	-7784
▁orphan	-7785
▁posted	-7786
▁powers	-7787
▁sounds	-7788
▁spirit	-7789
▁territ	-7790
▁tunapo	-7791
▁uchafu	-7792
▁ukuaji	-7793
▁wakazi	-7794
▁wakiwa	-7795
anyasaji	-7796
historia	-7797
pitishwa	-7798
shawishi	-7799
unguliwa	-7800
▁Fikiria	-7801
▁akisema	-7802
▁animals	-7803
▁checked	-7804
▁consequ	-7805
▁counter	-7806
▁feature	-7807
▁fiction	-7808
▁ghorofa	-7809
▁kiakili	-7810
▁kikombe	-7811
▁mbadala	-7812
▁mgogoro	-7813
▁network	-7814
▁officer	-7815
▁predict	-7816
▁primary	-7817
▁reports	-7818
▁smaller	-7819
▁studies	-7820
▁turning	-7821
▁uendele	-7822
▁umekuwa	-7823
▁vipindi	-7824
herehekea	-7825
hifadhiwa	-7826
hirikiana	-7827
▁Krismasi	-7828
▁Pulitzer	-7829
▁argument	-7830
▁believed	-7831
▁burudani	-7832
▁critical	-7833
▁daughter	-7834
▁delivery	-7835
▁demonstr	-7836
▁discover	-7837
▁entirely	-7838
▁fighting	-7839
▁friendly	-7840
▁kifahari	-7841
▁kinaweza	-7842
▁kuitumia	-7843
▁kujiunga	-7844
▁language	-7845
▁majukumu	-7846
▁mkondoni	-7847
▁mshiriki	-7848
▁nitakuwa	-7849
▁platform	-7850
▁provides	-7851
▁saratani	-7852
▁supposed	-7853
▁templeti	-7854
▁vichache	-7855
▁vidokezo	-7856
▁vilikuwa	-7857
▁wakulima	-7858
▁akitazama	-7859
▁anayeweza	-7860
▁arguments	-7861
▁developed	-7862
▁emergency	-7863
▁explained	-7864
▁kichocheo	-7865
▁kukamatwa	-7866
▁kushiniki	-7867
▁published	-7868
▁sekondari	-7869
▁uangalifu	-7870
▁ushindani	-7871
▁utamaduni	-7872
▁yesterday	-7873
▁commercial	-7874
▁commission	-7875
▁kibiashara	-7876
▁population	-7877
▁tunahitaji	-7878
▁unaonekana	-7879
▁appropriate	-7880
▁individuals	-7881
▁kuunganisha	-7882
▁udanganyifu	-7883
▁conversation	-7884
-4	-7885
1)	-7886
3]	-7887
58	-7888
AY	-7889
BI	-7890
Ch	-7891
OW	-7892
Ra	-7893
ux	-7894
zz	-7895
▁;	-7896
ENT	-7897
EdP	-7898
bes	-7899
box	-7900
can	-7901
cla	-7902
fuu	-7903
fya	-7904
hel	-7905
ica	-7906
inc	-7907
kov	-7908
kue	-7909
kwe	-7910
lid	-7911
ovu	-7912
pag	-7913
pot	-7914
pse	-7915
umn	-7916
unu	-7917
ura	-7918
win	-7919
▁4:	-7920
▁AI	-7921
▁Ty	-7922
▁Ub	-7923
▁ge	-7924
▁ok	-7925
▁sq	-7926
AIDS	-7927
Sawa	-7928
Tube	-7929
adha	-7930
bizi	-7931
chup	-7932
eria	-7933
etic	-7934
hone	-7935
ichi	-7936
ient	-7937
ikie	-7938
itis	-7939
kole	-7940
liki	-7941
note	-7942
oked	-7943
pace	-7944
pire	-7945
pted	-7946
reva	-7947
rika	-7948
rust	-7949
sawa	-7950
tion	-7951
uata	-7952
ulty	-7953
umzi	-7954
velo	-7955
wing	-7956
zeko	-7957
▁Ant	-7958
▁Bir	-7959
▁Bre	-7960
▁Bur	-7961
▁Cur	-7962
▁Hal	-7963
▁Khu	-7964
▁Kul	-7965
▁Law	-7966
▁Luc	-7967
▁Mit	-7968
▁Mus	-7969
▁Rep	-7970
▁Sal	-7971
▁Ter	-7972
▁Tom	-7973
▁Two	-7974
▁Uku	-7975
▁Yan	-7976
▁ala	-7977
▁dog	-7978
▁gar	-7979
▁hay	-7980
▁kas	-7981
▁mbo	-7982
▁rad	-7983
▁sen	-7984
▁smo	-7985
▁swa	-7986
▁tat	-7987
anidi	-7988
antly	-7989
celle	-7990
enior	-7991
eteme	-7992
forda	-7993
husia	-7994
icing	-7995
ineja	-7996
insia	-7997
inuka	-7998
istic	-7999
jeshi	-8000
kunde	-8001
laced	-8002
levya	-8003
limin	-8004
lined	-8005
lized	-8006
omita	-8007
oroka	-8008
paign	-8009
panga	-8010
uzito	-8011
zimia	-8012
▁2010	-8013
▁Base	-8014
▁Cour	-8015
▁Hatu	-8016
▁Hizi	-8017
▁Jour	-8018
▁Katr	-8019
▁Lake	-8020
▁Mart	-8021
▁Nazi	-8022
▁Over	-8023
▁Trek	-8024
▁akam	-8025
▁cash	-8026
▁demo	-8027
▁drop	-8028
▁gesi	-8029
▁guid	-8030
▁kioo	-8031
▁kipa	-8032
▁laid	-8033
▁lies	-8034
▁nawe	-8035
▁onyo	-8036
▁paka	-8037
▁para	-8038
▁pool	-8039
▁rail	-8040
▁riba	-8041
▁seek	-8042
▁sell	-8043
▁shut	-8044
▁stre	-8045
▁sumu	-8046
▁thri	-8047
▁tips	-8048
▁weap	-8049
Career	-8050
Wakati	-8051
ambayo	-8052
asisho	-8053
imbili	-8054
iondoa	-8055
koleti	-8056
zamaji	-8057
▁Elsie	-8058
▁Frank	-8059
▁Looks	-8060
▁Picha	-8061
▁Prote	-8062
▁Those	-8063
▁Wengi	-8064
▁Would	-8065
▁admit	-8066
▁alive	-8067
▁antic	-8068
▁brief	-8069
▁brown	-8070
▁conte	-8071
▁eight	-8072
▁empha	-8073
▁freed	-8074
▁glass	-8075
▁goods	-8076
▁hange	-8077
▁invol	-8078
▁kilio	-8079
▁kinga	-8080
▁ladha	-8081
▁links	-8082
▁lunch	-8083
▁manne	-8084
▁nafuu	-8085
▁occup	-8086
▁oppos	-8087
▁pembe	-8088
▁sales	-8089
▁sight	-8090
▁swing	-8091
▁taifa	-8092
▁turns	-8093
▁ukuta	-8094
▁valid	-8095
▁varia	-8096
▁vyake	-8097
▁vyama	-8098
▁wamet	-8099
EdParks	-8100
ingilia	-8101
umilivu	-8102
▁Annies	-8103
▁Canadi	-8104
▁French	-8105
▁George	-8106
▁Khukov	-8107
▁Mashar	-8108
▁Mwenye	-8109
▁Picard	-8110
▁Rachel	-8111
▁Spring	-8112
▁Taylor	-8113
▁Waziri	-8114
▁agreed	-8115
▁aliona	-8116
▁anwani	-8117
▁assume	-8118
▁azimio	-8119
▁civili	-8120
▁damage	-8121
▁dhaifu	-8122
▁forced	-8123
▁frustr	-8124
▁global	-8125
▁hakiki	-8126
▁helped	-8127
▁iPhone	-8128
▁kamati	-8129
▁kikomo	-8130
▁kilimo	-8131
▁kivuli	-8132
▁kutoku	-8133
▁mgongo	-8134
▁naweza	-8135
▁ratiba	-8136
▁rununu	-8137
▁sahani	-8138
▁settle	-8139
▁shared	-8140
▁terror	-8141
▁theory	-8142
▁therap	-8143
▁udongo	-8144
▁vidole	-8145
▁yatima	-8146
elekezwa	-8147
fautiana	-8148
imarisha	-8149
kusanywa	-8150
lization	-8151
▁England	-8152
▁Perhaps	-8153
▁Profess	-8154
▁Utafiti	-8155
▁Whether	-8156
▁YouTube	-8157
▁arrived	-8158
▁bedroom	-8159
▁cutting	-8160
▁focused	-8161
▁glucose	-8162
▁highest	-8163
▁holding	-8164
▁kisicho	-8165
▁kitchen	-8166
▁kulevya	-8167
▁kupinga	-8168
▁maafisa	-8169
▁mapenzi	-8170
▁monitor	-8171
▁mvulana	-8172
▁ninaona	-8173
▁noticed	-8174
▁produce	-8175
▁publish	-8176
▁reviews	-8177
▁sekunde	-8178
▁suspect	-8179
▁tonight	-8180
▁updated	-8181
▁welcome	-8182
▁anywhere	-8183
▁election	-8184
▁existing	-8185
▁haipaswi	-8186
▁hakuweza	-8187
▁infected	-8188
▁kufungwa	-8189
▁messages	-8190
▁mikataba	-8191
▁mshirika	-8192
▁ongezeko	-8193
▁programs	-8194
▁template	-8195
▁ujauzito	-8196
▁utambuzi	-8197
▁visitors	-8198
▁wasomaji	-8199
-237-5714.	-8200
▁afternoon	-8201
▁announced	-8202
▁collected	-8203
▁decisions	-8204
▁documents	-8205
▁everybody	-8206
▁literally	-8207
▁magharibi	-8208
▁mwanamume	-8209
▁standards	-8210
▁Everything	-8211
▁Mwenyekiti	-8212
▁disappoint	-8213
▁iliyofuata	-8214
▁kufundisha	-8215
▁strategies	-8216
▁supporting	-8217
▁vinginevyo	-8218
CareerShines	-8219
▁competition	-8220
▁established	-8221
▁kinachoweza	-8222
▁kukamilisha	-8223
▁traditional	-8224
▁intervention	-8225
▁mtengenezaji	-8226
▁utengenezaji	-8227
▁800-237-5714.	-8228
▁kujiandikisha	-8229
▁opportunities	-8230
▁relationships	-8231
▁responsibility	-8232
DF	-8233
EE	-8234
EO	-8235
OM	-8236
SP	-8237
Un	-8238
cu	-8239
Don	-8240
Ina	-8241
She	-8242
VER	-8243
Yes	-8244
asc	-8245
bby	-8246
cke	-8247
cow	-8248
den	-8249
eda	-8250
eed	-8251
hor	-8252
ird	-8253
iry	-8254
izo	-8255
leg	-8256
lst	-8257
ndi	-8258
olf	-8259
pel	-8260
rim	-8261
rum	-8262
too	-8263
▁9,	-8264
▁90	-8265
▁Es	-8266
▁IN	-8267
▁Mk	-8268
▁[2	-8269
Free	-8270
Than	-8271
ancy	-8272
anye	-8273
anze	-8274
athy	-8275
bati	-8276
duka	-8277
ened	-8278
fair	-8279
fund	-8280
geza	-8281
goni	-8282
hern	-8283
inse	-8284
istr	-8285
kies	-8286
lism	-8287
onel	-8288
outs	-8289
post	-8290
ques	-8291
rast	-8292
rome	-8293
sale	-8294
sign	-8295
vuvi	-8296
wapa	-8297
▁15,	-8298
▁BTC	-8299
▁Cho	-8300
▁Fil	-8301
▁Msa	-8302
▁Sub	-8303
▁Sur	-8304
▁Vir	-8305
▁Wil	-8306
▁bot	-8307
▁bul	-8308
▁dro	-8309
▁mto	-8310
▁nut	-8311
▁sne	-8312
▁tex	-8313
▁tor	-8314
▁ufu	-8315
aling	-8316
andom	-8317
anifu	-8318
atics	-8319
bbing	-8320
ednes	-8321
fault	-8322
gonga	-8323
ician	-8324
idhin	-8325
ience	-8326
imize	-8327
imson	-8328
nergy	-8329
orrow	-8330
ounds	-8331
oured	-8332
riage	-8333
riend	-8334
sight	-8335
uable	-8336
▁Army	-8337
▁Baba	-8338
▁Both	-8339
▁Hali	-8340
▁Hard	-8341
▁Kore	-8342
▁Mark	-8343
▁Mary	-8344
▁Plus	-8345
▁akim	-8346
▁deni	-8347
▁edge	-8348
▁fema	-8349
▁fran	-8350
▁gift	-8351
▁hall	-8352
▁huja	-8353
▁kira	-8354
▁klin	-8355
▁kuki	-8356
▁liqu	-8357
▁loud	-8358
▁mawe	-8359
▁miji	-8360
▁ning	-8361
▁pake	-8362
▁pure	-8363
▁rare	-8364
▁repa	-8365
▁sequ	-8366
▁shop	-8367
▁till	-8368
▁unap	-8369
▁upas	-8370
▁utaf	-8371
▁vote	-8372
▁wenu	-8373
▁yoga	-8374
istics	-8375
jalizi	-8376
kataba	-8377
kwisha	-8378
umziko	-8379
ungano	-8380
yakati	-8381
▁Click	-8382
▁Found	-8383
▁Heart	-8384
▁Night	-8385
▁Raven	-8386
▁Trans	-8387
▁Video	-8388
▁accur	-8389
▁agizo	-8390
▁akion	-8391
▁anapo	-8392
▁bunch	-8393
▁claim	-8394
▁crowd	-8395
▁dates	-8396
▁drawn	-8397
▁exten	-8398
▁fanya	-8399
▁feels	-8400
▁fixed	-8401
▁gossi	-8402
▁hafla	-8403
▁kipya	-8404
▁kofia	-8405
▁kucha	-8406
▁kumpa	-8407
▁mazao	-8408
▁mlima	-8409
▁nguzo	-8410
▁raise	-8411
▁remar	-8412
▁shoes	-8413
▁south	-8414
▁stood	-8415
▁stret	-8416
▁survi	-8417
▁wakuu	-8418
▁wazee	-8419
▁wimbo	-8420
▁worse	-8421
▁youth	-8422
ception	-8423
fadhili	-8424
fuatayo	-8425
itembea	-8426
jivunia	-8427
kusanya	-8428
pelekwa	-8429
related	-8430
rencies	-8431
▁Anyway	-8432
▁Before	-8433
▁Energy	-8434
▁Hawaii	-8435
▁Huenda	-8436
▁Kutoka	-8437
▁Moscow	-8438
▁Siwezi	-8439
▁UKIMWI	-8440
▁actual	-8441
▁adjust	-8442
▁adults	-8443
▁anavyo	-8444
▁baking	-8445
▁bodies	-8446
▁carefu	-8447
▁famous	-8448
▁forces	-8449
▁forgot	-8450
▁format	-8451
▁handle	-8452
▁ifuata	-8453
▁kahawa	-8454
▁kiburi	-8455
▁kugusa	-8456
▁kukari	-8457
▁lovely	-8458
▁maduka	-8459
▁mauaji	-8460
▁missed	-8461
▁mizigo	-8462
▁mwamba	-8463
▁nyimbo	-8464
▁pazuri	-8465
▁promot	-8466
▁remain	-8467
▁retail	-8468
▁stress	-8469
▁stupid	-8470
▁thinks	-8471
▁uelewa	-8472
▁upload	-8473
▁uteuzi	-8474
▁utoaji	-8475
▁wanapo	-8476
▁waweze	-8477
anifanya	-8478
atically	-8479
chnology	-8480
footnote	-8481
fordable	-8482
ingeweza	-8483
pendezwa	-8484
▁Chakula	-8485
▁Clinton	-8486
▁Maelezo	-8487
▁Mapishi	-8488
▁Mtandao	-8489
▁Shirika	-8490
▁actions	-8491
▁advanta	-8492
▁alipata	-8493
▁applied	-8494
▁careful	-8495
▁chicken	-8496
▁confirm	-8497
▁consist	-8498
▁default	-8499
▁kampeni	-8500
▁killing	-8501
▁kliniki	-8502
▁kukataa	-8503
▁kupigwa	-8504
▁massage	-8505
▁matters	-8506
▁mission	-8507
▁nations	-8508
▁organis	-8509
▁pointed	-8510
▁portion	-8511
▁records	-8512
▁removed	-8513
▁sasisho	-8514
▁shouldn	-8515
▁taaluma	-8516
▁tamasha	-8517
▁tangazo	-8518
▁trafiki	-8519
▁updates	-8520
▁vizuizi	-8521
▁walking	-8522
▁wanacho	-8523
▁winning	-8524
Tafadhali	-8525
boreshaji	-8526
chunguzwa	-8527
gunduliwa	-8528
istration	-8529
wakilishi	-8530
▁National	-8531
▁akauliza	-8532
▁attitude	-8533
▁bringing	-8534
▁campaign	-8535
▁challeng	-8536
▁emphasis	-8537
▁enthusia	-8538
▁entrance	-8539
▁honestly	-8540
▁huchukua	-8541
▁itafanya	-8542
▁kitambaa	-8543
▁kurekodi	-8544
▁msaidizi	-8545
▁mwangaza	-8546
▁neighbor	-8547
▁nilitaka	-8548
▁numerous	-8549
▁philosop	-8550
▁purposes	-8551
▁referred	-8552
▁repeated	-8553
▁requires	-8554
▁response	-8555
▁returned	-8556
▁slightly	-8557
▁speaking	-8558
▁teaching	-8559
▁tunataka	-8560
▁upasuaji	-8561
▁vitambaa	-8562
▁adventure	-8563
▁chocolate	-8564
▁completed	-8565
▁emotional	-8566
▁expensive	-8567
▁kuridhika	-8568
▁kuwafanya	-8569
▁obviously	-8570
▁searching	-8571
▁somewhere	-8572
▁tahadhari	-8573
▁uchambuzi	-8574
▁unatafuta	-8575
▁vifurushi	-8576
▁Foundation	-8577
▁Ninafurahi	-8578
▁businesses	-8579
▁conference	-8580
▁employment	-8581
▁facilities	-8582
▁iliyoundwa	-8583
▁increasing	-8584
▁kitamaduni	-8585
▁protection	-8586
▁inawezekana	-8587
▁mapendekezo	-8588
▁instructions	-8589
▁kilichotokea	-8590
▁communication	-8591
▁investigation	-8592
!”	-8593
);	-8594
34	-8595
75	-8596
89	-8597
MB	-8598
NY	-8599
PP	-8600
TH	-8601
eg	-8602
kt	-8603
▁!	-8604
▁→	-8605
▁🙁	-8606
100	-8607
CDT	-8608
bre	-8609
cis	-8610
cot	-8611
dam	-8612
die	-8613
dro	-8614
gry	-8615
htt	-8616
huo	-8617
len	-8618
mvi	-8619
pre	-8620
uwa	-8621
wat	-8622
wor	-8623
yoo	-8624
▁2)	-8625
▁26	-8626
▁27	-8627
▁BA	-8628
▁CD	-8629
▁EM	-8630
▁IF	-8631
▁ON	-8632
▁cy	-8633
Kila	-8634
Well	-8635
ades	-8636
base	-8637
card	-8638
chot	-8639
esto	-8640
fant	-8641
fits	-8642
huku	-8643
icul	-8644
inyi	-8645
iske	-8646
lder	-8647
life	-8648
mies	-8649
okoa	-8650
onda	-8651
real	-8652
roll	-8653
shed	-8654
site	-8655
soma	-8656
suko	-8657
tage	-8658
thon	-8659
ucky	-8660
uwai	-8661
vour	-8662
week	-8663
zimu	-8664
▁(3)	-8665
▁300	-8666
▁BPM	-8667
▁Bah	-8668
▁Bay	-8669
▁Bri	-8670
▁Bus	-8671
▁Edu	-8672
▁FBI	-8673
▁FUN	-8674
▁Far	-8675
▁Got	-8676
▁Hak	-8677
▁Hum	-8678
▁Inc	-8679
▁JMR	-8680
▁Jac	-8681
▁MCA	-8682
▁Nor	-8683
▁Out	-8684
▁Pra	-8685
▁Rec	-8686
▁Spe	-8687
▁Tak	-8688
▁Tif	-8689
▁Try	-8690
▁Ume	-8691
▁VET	-8692
▁aid	-8693
▁apo	-8694
▁arm	-8695
▁huj	-8696
▁mli	-8697
▁mny	-8698
▁pen	-8699
▁pit	-8700
▁tum	-8701
▁twe	-8702
▁uji	-8703
alled	-8704
ambat	-8705
ampus	-8706
brary	-8707
ceive	-8708
daiwa	-8709
endar	-8710
ffice	-8711
gelea	-8712
gging	-8713
hical	-8714
isadi	-8715
iseme	-8716
itial	-8717
iweka	-8718
kasir	-8719
kingo	-8720
known	-8721
lexus	-8722
mally	-8723
month	-8724
olewa	-8725
orage	-8726
orant	-8727
ridge	-8728
singi	-8729
uhusu	-8730
unika	-8731
venue	-8732
wajib	-8733
worth	-8734
zangu	-8735
▁2008	-8736
▁2013	-8737
▁Afya	-8738
▁Club	-8739
▁Haku	-8740
▁Hote	-8741
▁Kirk	-8742
▁Know	-8743
▁Muda	-8744
▁Only	-8745
▁Park	-8746
▁Plan	-8747
▁Sina	-8748
▁Tali	-8749
▁Zeal	-8750
▁alin	-8751
▁amri	-8752
▁blow	-8753
▁bluu	-8754
▁citi	-8755
▁clin	-8756
▁crew	-8757
▁dent	-8758
▁deod	-8759
▁dini	-8760
▁fing	-8761
▁fuel	-8762
▁hell	-8763
▁huna	-8764
▁hung	-8765
▁item	-8766
▁jadi	-8767
▁kike	-8768
▁kupu	-8769
▁maba	-8770
▁mail	-8771
▁mako	-8772
▁male	-8773
▁mbao	-8774
▁moon	-8775
▁pana	-8776
▁rich	-8777
▁runs	-8778
▁salt	-8779
▁samp	-8780
▁ship	-8781
▁sick	-8782
▁sole	-8783
▁uses	-8784
▁wafu	-8785
▁wine	-8786
▁wood	-8787
▁yule	-8788
▁zile	-8789
Ingawa	-8790
andani	-8791
erable	-8792
futaji	-8793
graphs	-8794
hangaa	-8795
hinese	-8796
ichael	-8797
injari	-8798
iskeli	-8799
kakati	-8800
kimbia	-8801
lester	-8802
onable	-8803
porudi	-8804
sively	-8805
umbele	-8806
vering	-8807
▁Afric	-8808
▁Brown	-8809
▁Capit	-8810
▁Child	-8811
▁Chris	-8812
▁Field	-8813
▁Jamii	-8814
▁Jones	-8815
▁Kabla	-8816
▁Lengo	-8817
▁Paris	-8818
▁Santa	-8819
▁Swali	-8820
▁agent	-8821
▁chapa	-8822
▁crazy	-8823
▁exclu	-8824
▁forth	-8825
▁gradu	-8826
▁grass	-8827
▁guide	-8828
▁honor	-8829
▁ideal	-8830
▁judge	-8831
▁kibao	-8832
▁lands	-8833
▁lived	-8834
▁loans	-8835
▁mdomo	-8836
▁mgeni	-8837
▁mimea	-8838
▁nacho	-8839
▁nodes	-8840
▁pumzi	-8841
▁sides	-8842
▁skill	-8843
▁soldi	-8844
▁teach	-8845
▁ugumu	-8846
▁uzuri	-8847
▁vyetu	-8848
▁wapig	-8849
angazwa	-8850
atamani	-8851
fuatazo	-8852
fukuzwa	-8853
ication	-8854
imbilia	-8855
itation	-8856
jificha	-8857
kampuni	-8858
kusudia	-8859
ruption	-8860
shindwa	-8861
theless	-8862
▁(2001)	-8863
▁Academ	-8864
▁Berlin	-8865
▁Biblia	-8866
▁Center	-8867
▁Commit	-8868
▁Factor	-8869
▁Having	-8870
▁Indeed	-8871
▁Kwamba	-8872
▁Unajua	-8873
▁alicho	-8874
▁anuwai	-8875
▁approa	-8876
▁aspect	-8877
▁breast	-8878
▁cheese	-8879
▁claims	-8880
▁client	-8881
▁compon	-8882
▁conclu	-8883
▁corpor	-8884
▁depend	-8885
▁discip	-8886
▁escape	-8887
▁gather	-8888
▁gossip	-8889
▁harusi	-8890
▁hasara	-8891
▁hazina	-8892
▁heaven	-8893
▁horror	-8894
▁huohuo	-8895
▁inayot	-8896
▁jinsia	-8897
▁kasoro	-8898
▁kazini	-8899
▁kubeba	-8900
▁kufuta	-8901
▁kuketi	-8902
▁kupima	-8903
▁losing	-8904
▁manner	-8905
▁middle	-8906
▁observ	-8907
▁opened	-8908
▁portfo	-8909
▁prepar	-8910
▁ramani	-8911
▁reward	-8912
▁served	-8913
▁signed	-8914
▁slowly	-8915
▁speech	-8916
▁sports	-8917
▁status	-8918
▁undani	-8919
▁wakala	-8920
▁wazimu	-8921
anyikiwa	-8922
atazamia	-8923
boreshwa	-8924
ferences	-8925
igration	-8926
jaribiwa	-8927
kataliwa	-8928
malizika	-8929
zungukwa	-8930
▁Bonyeza	-8931
▁Endelea	-8932
▁Familia	-8933
▁Katrina	-8934
▁Michael	-8935
▁Mkataba	-8936
▁Zealand	-8937
▁akaanza	-8938
▁alasiri	-8939
▁alijibu	-8940
▁anticip	-8941
▁calling	-8942
▁capable	-8943
▁central	-8944
▁century	-8945
▁clothes	-8946
▁conduct	-8947
▁consult	-8948
▁courage	-8949
▁devices	-8950
▁explain	-8951
▁fadhili	-8952
▁fingers	-8953
▁graphic	-8954
▁justice	-8955
▁kuandaa	-8956
▁kuhamia	-8957
▁kukidhi	-8958
▁kupanua	-8959
▁maarifa	-8960
▁makundi	-8961
▁mashaka	-8962
▁mikubwa	-8963
▁mmiliki	-8964
▁mtihani	-8965
▁nilicho	-8966
▁pengine	-8967
▁profile	-8968
▁protest	-8969
▁reality	-8970
▁reduced	-8971
▁reflect	-8972
▁seeking	-8973
▁teacher	-8974
▁treated	-8975
▁unaofaa	-8976
▁watched	-8977
▁weapons	-8978
▁writers	-8979
hughulika	-8980
▁Business	-8981
▁Jumatano	-8982
▁Kentucky	-8983
▁Marcelle	-8984
▁Stardust	-8985
▁accommod	-8986
▁affected	-8987
▁analysis	-8988
▁apparent	-8989
▁audience	-8990
▁baiskeli	-8991
▁blockcha	-8992
▁checking	-8993
▁harakati	-8994
▁hutumiwa	-8995
▁included	-8996
▁kemikali	-8997
▁kilomita	-8998
▁kimsingi	-8999
▁kufungua	-9000
▁location	-9001
▁majeraha	-9002
▁occasion	-9003
▁officers	-9004
▁relevant	-9005
▁tumekuwa	-9006
▁umaarufu	-9007
▁valuable	-9008
▁Kulingana	-9009
▁SugarFree	-9010
▁Wanafunzi	-9011
▁authority	-9012
▁carefully	-9013
▁chokoleti	-9014
▁committed	-9015
▁inaruhusu	-9016
▁increased	-9017
▁kitandani	-9018
▁kujificha	-9019
▁kuvinjari	-9020
▁madirisha	-9021
▁mashariki	-9022
▁mashuhuri	-9023
▁ninafanya	-9024
▁ourselves	-9025
▁practices	-9026
▁surprised	-9027
▁territory	-9028
▁typically	-9029
▁wanablogu	-9030
▁wanafanya	-9031
▁zifuatazo	-9032
▁Generation	-9033
▁Mkurugenzi	-9034
▁appreciate	-9035
▁confidence	-9036
▁connection	-9037
▁developing	-9038
▁incredible	-9039
▁kuimarisha	-9040
▁kusikiliza	-9041
▁kutafakari	-9042
▁niligundua	-9043
▁resolution	-9044
▁scientific	-9045
▁shirikisho	-9046
▁throughout	-9047
▁uboreshaji	-9048
▁wasimamizi	-9049
▁watazamaji	-9050
▁Mawasiliano	-9051
▁educational	-9052
▁inajumuisha	-9053
▁kuchanganya	-9054
▁kushinikiza	-9055
▁perspective	-9056
▁unyanyasaji	-9057
▁zinapatikana	-9058
):	-9059
0)	-9060
18	-9061
74	-9062
8]	-9063
AL	-9064
AS	-9065
EL	-9066
Fi	-9067
IF	-9068
Is	-9069
Jo	-9070
To	-9071
Ye	-9072
mt	-9073
pm	-9074
wo	-9075
-19	-9076
EAR	-9077
God	-9078
ady	-9079
aly	-9080
dui	-9081
gun	-9082
iri	-9083
izi	-9084
lit	-9085
lut	-9086
nut	-9087
oyo	-9088
pti	-9089
uno	-9090
vig	-9091
▁37	-9092
▁Ah	-9093
▁Er	-9094
▁Ga	-9095
▁II	-9096
Hiyo	-9097
Sasa	-9098
Siku	-9099
ages	-9100
anne	-9101
berg	-9102
dios	-9103
eges	-9104
gger	-9105
gued	-9106
hang	-9107
kees	-9108
kers	-9109
kima	-9110
labu	-9111
lash	-9112
miss	-9113
pher	-9114
ural	-9115
utch	-9116
vity	-9117
wada	-9118
wiki	-9119
▁11.	-9120
▁ALL	-9121
▁Add	-9122
▁Aut	-9123
▁Bae	-9124
▁Bal	-9125
▁Ear	-9126
▁FOR	-9127
▁Hai	-9128
▁Ire	-9129
▁Joy	-9130
▁Met	-9131
▁Mid	-9132
▁Nap	-9133
▁Ngu	-9134
▁Old	-9135
▁Pau	-9136
▁Rek	-9137
▁Ted	-9138
▁Way	-9139
▁abu	-9140
▁agr	-9141
▁aim	-9142
▁amb	-9143
▁bug	-9144
▁cas	-9145
▁dam	-9146
▁den	-9147
▁dim	-9148
▁hes	-9149
▁lab	-9150
▁lao	-9151
▁lap	-9152
▁led	-9153
▁mbu	-9154
▁nim	-9155
▁nuc	-9156
▁pin	-9157
▁unc	-9158
5,000	-9159
Baada	-9160
amuru	-9161
ander	-9162
andoa	-9163
antic	-9164
asihi	-9165
endea	-9166
futwa	-9167
gaidi	-9168
gment	-9169
hetic	-9170
ikuta	-9171
inama	-9172
ishio	-9173
isiwa	-9174
itute	-9175
kable	-9176
letea	-9177
mwona	-9178
ombwa	-9179
orojo	-9180
oston	-9181
otics	-9182
stood	-9183
tress	-9184
under	-9185
uries	-9186
venth	-9187
yoofu	-9188
▁Each	-9189
▁Game	-9190
▁Holi	-9191
▁Jack	-9192
▁List	-9193
▁Lola	-9194
▁Next	-9195
▁Reme	-9196
▁Sawa	-9197
▁Spir	-9198
▁Such	-9199
▁Whit	-9200
▁ball	-9201
▁bear	-9202
▁blue	-9203
▁boat	-9204
▁cars	-9205
▁cris	-9206
▁cute	-9207
▁dict	-9208
▁enzi	-9209
▁fees	-9210
▁fina	-9211
▁hasn	-9212
▁koti	-9213
▁lady	-9214
▁laws	-9215
▁lean	-9216
▁lote	-9217
▁mapa	-9218
▁mess	-9219
▁meta	-9220
▁neut	-9221
▁okay	-9222
▁pill	-9223
▁reli	-9224
▁seva	-9225
▁susp	-9226
▁swim	-9227
▁thin	-9228
▁thou	-9229
▁tuko	-9230
▁uche	-9231
▁uone	-9232
UKIMWI	-9233
enance	-9234
gombea	-9235
humuni	-9236
ifanye	-9237
ifanyi	-9238
ifunga	-9239
ligion	-9240
ndrome	-9241
orable	-9242
oughly	-9243
perate	-9244
tambua	-9245
umpkin	-9246
weight	-9247
yotaka	-9248
▁1,000	-9249
▁Again	-9250
▁Check	-9251
▁Egypt	-9252
▁Fanya	-9253
▁Green	-9254
▁Jimbo	-9255
▁Major	-9256
▁Mbali	-9257
▁Medic	-9258
▁Obama	-9259
▁Steve	-9260
▁Tangu	-9261
▁Tunap	-9262
▁Watch	-9263
▁bendi	-9264
▁bomba	-9265
▁booth	-9266
▁bread	-9267
▁calls	-9268
▁crops	-9269
▁dance	-9270
▁deser	-9271
▁drugs	-9272
▁dunia	-9273
▁estim	-9274
▁heavi	-9275
▁ikawa	-9276
▁initi	-9277
▁kushi	-9278
▁magic	-9279
▁mista	-9280
▁mkazo	-9281
▁moshi	-9282
▁mzazi	-9283
▁navig	-9284
▁nukuu	-9285
▁nyasi	-9286
▁outdo	-9287
▁reply	-9288
▁revol	-9289
▁seats	-9290
▁shape	-9291
▁thick	-9292
▁tired	-9293
▁upset	-9294
▁utaka	-9295
aminika	-9296
angilio	-9297
atambua	-9298
atazama	-9299
elekeza	-9300
enerali	-9301
etemeka	-9302
illions	-9303
isitiza	-9304
itihada	-9305
ivalent	-9306
mbulizi	-9307
▁Boston	-9308
▁Change	-9309
▁Family	-9310
▁Italia	-9311
▁Kitabu	-9312
▁Maisha	-9313
▁Mpango	-9314
▁Python	-9315
▁Respon	-9316
▁Serena	-9317
▁Square	-9318
▁Uzoefu	-9319
▁Wednes	-9320
▁advert	-9321
▁akalia	-9322
▁artist	-9323
▁barafu	-9324
▁beauty	-9325
▁belong	-9326
▁causes	-9327
▁chosen	-9328
▁chumvi	-9329
▁closer	-9330
▁collea	-9331
▁confli	-9332
▁debate	-9333
▁degree	-9334
▁enable	-9335
▁idhini	-9336
▁inafaa	-9337
▁injini	-9338
▁kamera	-9339
▁kipimo	-9340
▁kujumu	-9341
▁kupika	-9342
▁kuunga	-9343
▁liquid	-9344
▁loving	-9345
▁makini	-9346
▁mostly	-9347
▁msanii	-9348
▁mwangu	-9349
▁newspa	-9350
▁novels	-9351
▁nyanya	-9352
▁porojo	-9353
▁resear	-9354
▁secure	-9355
▁severe	-9356
▁specia	-9357
▁spring	-9358
▁stands	-9359
▁struck	-9360
▁surely	-9361
▁switch	-9362
▁techno	-9363
▁tishio	-9364
▁tunayo	-9365
▁urithi	-9366
▁vitani	-9367
▁watano	-9368
▁whilst	-9369
ambukizi	-9370
engenezo	-9371
fections	-9372
haribiwa	-9373
jeruhiwa	-9374
lalamiko	-9375
lesterol	-9376
▁Chinese	-9377
▁Hadithi	-9378
▁Instead	-9379
▁Ireland	-9380
▁Profesa	-9381
▁Stimson	-9382
▁Strange	-9383
▁Usalama	-9384
▁Wahindi	-9385
▁Yankees	-9386
▁airport	-9387
▁ameketi	-9388
▁answers	-9389
▁anxious	-9390
▁atakaye	-9391
▁balance	-9392
▁bendera	-9393
▁biggest	-9394
▁billion	-9395
▁causing	-9396
▁chances	-9397
▁classic	-9398
▁complic	-9399
▁drawing	-9400
▁failure	-9401
▁farmers	-9402
▁follows	-9403
▁holiday	-9404
▁inasema	-9405
▁initial	-9406
▁install	-9407
▁kuficha	-9408
▁kugeuka	-9409
▁kupumua	-9410
▁letting	-9411
▁mjadala	-9412
▁moments	-9413
▁nyakati	-9414
▁obvious	-9415
▁passion	-9416
▁patient	-9417
▁pleased	-9418
▁quietly	-9419
▁refused	-9420
▁routine	-9421
▁sampuli	-9422
▁settled	-9423
▁shahada	-9424
▁sources	-9425
▁station	-9426
▁storage	-9427
▁uchungu	-9428
▁ufisadi	-9429
▁ukaguzi	-9430
▁ushindi	-9431
▁usomaji	-9432
▁waandam	-9433
▁wenzake	-9434
formation	-9435
ingiliaji	-9436
karibisha	-9437
▁Kikristo	-9438
▁Mwanzoni	-9439
▁Remember	-9440
▁accounts	-9441
▁annoying	-9442
▁chemical	-9443
▁concerns	-9444
▁contains	-9445
▁diseases	-9446
▁electric	-9447
▁feelings	-9448
▁greatest	-9449
▁inayofaa	-9450
▁kuhesabu	-9451
▁kumekuwa	-9452
▁kuongoza	-9453
▁kutakuwa	-9454
▁kutoroka	-9455
▁mashamba	-9456
▁masharti	-9457
▁mikakati	-9458
▁movement	-9459
▁ninahisi	-9460
▁prepared	-9461
▁remained	-9462
▁schedule	-9463
▁stronger	-9464
▁subjects	-9465
▁suddenly	-9466
▁uhifadhi	-9467
▁ukosoaji	-9468
▁unapenda	-9469
▁ushahidi	-9470
▁websites	-9471
▁yamekuwa	-9472
asababisha	-9473
idhinishwa	-9474
wasilishwa	-9475
▁According	-9476
▁Committee	-9477
▁Education	-9478
▁Hakikisha	-9479
▁Magharibi	-9480
▁Natumaini	-9481
▁Universal	-9482
▁concerned	-9483
▁dedicated	-9484
▁kitaaluma	-9485
▁kuzunguka	-9486
▁makampuni	-9487
▁mapumziko	-9488
▁msimamizi	-9489
▁pendekezo	-9490
▁portfolio	-9491
▁processes	-9492
▁providers	-9493
▁receiving	-9494
▁walifanya	-9495
▁wangeweza	-9496
▁wasiliana	-9497
▁wholesale	-9498
▁aliendelea	-9499
▁alionekana	-9500
▁anaonekana	-9501
▁blockchain	-9502
▁equivalent	-9503
▁everywhere	-9504
▁kihistoria	-9505
▁kuwasaidia	-9506
▁linapokuja	-9507
▁meaningful	-9508
▁represents	-9509
▁resistance	-9510
▁situations	-9511
▁surrounded	-9512
▁uingiliaji	-9513
▁uliofanywa	-9514
▁walipokuwa	-9515
▁wapiganaji	-9516
▁Association	-9517
▁akizungumza	-9518
▁considering	-9519
▁discussions	-9520
▁hifadhidata	-9521
▁kuzingatiwa	-9522
▁improvements	-9523
▁mashambulizi	-9524
▁waandamanaji	-9525
▁ninachohitaji	-9526
▁professionals	-9527
▁yanayohusiana	-9528
!'	-9529
%)	-9530
-)	-9531
/0	-9532
16	-9533
17	-9534
40	-9535
6]	-9536
AP	-9537
An	-9538
CS	-9539
OL	-9540
OS	-9541
aa	-9542
df	-9543
uo	-9544
xy	-9545
How	-9546
Ker	-9547
ORD	-9548
UTC	-9549
agi	-9550
ban	-9551
bid	-9552
bon	-9553
cut	-9554
dri	-9555
erg	-9556
flu	-9557
ggs	-9558
haw	-9559
htm	-9560
kop	-9561
los	-9562
mos	-9563
mph	-9564
nis	-9565
omi	-9566
rat	-9567
sty	-9568
tra	-9569
uce	-9570
uke	-9571
umm	-9572
unt	-9573
uty	-9574
war	-9575
▁00	-9576
▁3:	-9577
▁49	-9578
▁64	-9579
▁7,	-9580
▁;)	-9581
▁Ak	-9582
▁NY	-9583
▁Ox	-9584
▁PR	-9585
▁SH	-9586
▁dy	-9587
▁ja	-9588
▁od	-9589
▁oh	-9590
Alex	-9591
Book	-9592
John	-9593
Lord	-9594
Yeye	-9595
bbet	-9596
city	-9597
etea	-9598
etup	-9599
even	-9600
fili	-9601
fter	-9602
gned	-9603
husa	-9604
icks	-9605
iley	-9606
imum	-9607
isen	-9608
jare	-9609
lays	-9610
leni	-9611
mann	-9612
mony	-9613
oman	-9614
onds	-9615
ords	-9616
orie	-9617
otes	-9618
oung	-9619
phin	-9620
pies	-9621
pore	-9622
pson	-9623
rees	-9624
rete	-9625
roup	-9626
semb	-9627
taba	-9628
taji	-9629
uawa	-9630
vuka	-9631
weke	-9632
west	-9633
whel	-9634
with	-9635
yers	-9636
zara	-9637
▁(1)	-9638
▁11,	-9639
▁17-	-9640
▁17.	-9641
▁192	-9642
▁25,	-9643
▁30,	-9644
▁600	-9645
▁Age	-9646
▁Aka	-9647
▁Art	-9648
▁Bub	-9649
▁Cal	-9650
▁Cam	-9651
▁Fur	-9652
▁Him	-9653
▁Jim	-9654
▁Kar	-9655
▁Lat	-9656
▁McC	-9657
▁Nje	-9658
▁Oil	-9659
▁Plu	-9660
▁REA	-9661
▁Ski	-9662
▁Tea	-9663
▁Tek	-9664
▁Tok	-9665
▁Usi	-9666
▁Web	-9667
▁Wig	-9668
▁agg	-9669
▁bow	-9670
▁clu	-9671
▁dad	-9672
▁dom	-9673
▁dre	-9674
▁fra	-9675
▁gay	-9676
▁gig	-9677
▁gym	-9678
▁imm	-9679
▁joy	-9680
▁lic	-9681
▁lie	-9682
▁mac	-9683
▁nji	-9684
▁ped	-9685
▁pha	-9686
▁rom	-9687
▁sna	-9688
▁tag	-9689
▁tim	-9690
▁uwa	-9691
Tunes	-9692
ample	-9693
anzia	-9694
arabu	-9695
atura	-9696
eshwa	-9697
hemko	-9698
hered	-9699
hicle	-9700
icked	-9701
iding	-9702
igiza	-9703
ipoti	-9704
ishna	-9705
kesha	-9706
laugh	-9707
llout	-9708
loved	-9709
patwa	-9710
posit	-9711
ppers	-9712
ulate	-9713
ushwa	-9714
vised	-9715
yesha	-9716
▁2000	-9717
▁2003	-9718
▁2004	-9719
▁2012	-9720
▁Amba	-9721
▁Bahá	-9722
▁Chat	-9723
▁Come	-9724
▁Coun	-9725
▁Dark	-9726
▁Dist	-9727
▁Find	-9728
▁Jane	-9729
▁Jibu	-9730
▁Jose	-9731
▁LORD	-9732
▁Levi	-9733
▁Line	-9734
▁Meet	-9735
▁Mont	-9736
▁Naam	-9737
▁Ndio	-9738
▁Nova	-9739
▁Pots	-9740
▁Russ	-9741
▁Schu	-9742
▁Stay	-9743
▁Step	-9744
▁Timu	-9745
▁Wama	-9746
▁Wind	-9747
▁amet	-9748
▁bund	-9749
▁cert	-9750
▁choo	-9751
▁earn	-9752
▁fell	-9753
▁gent	-9754
▁hadn	-9755
▁hill	-9756
▁iPad	-9757
▁insp	-9758
▁joke	-9759
▁kuba	-9760
▁kumu	-9761
▁lega	-9762
▁maru	-9763
▁neck	-9764
▁nine	-9765
▁papo	-9766
▁piga	-9767
▁pull	-9768
▁rise	-9769
▁sake	-9770
▁sale	-9771
▁snow	-9772
▁task	-9773
▁thee	-9774
▁thor	-9775
▁tuka	-9776
▁ujue	-9777
▁ukoo	-9778
▁viny	-9779
▁vipa	-9780
anishi	-9781
ashion	-9782
called	-9783
egesho	-9784
elezwa	-9785
encies	-9786
engers	-9787
ensive	-9788
ichard	-9789
icking	-9790
ikumbu	-9791
ingili	-9792
isters	-9793
jareja	-9794
omesha	-9795
osambo	-9796
poanza	-9797
semaji	-9798
ternal	-9799
ulting	-9800
▁Akiwa	-9801
▁Chang	-9802
▁Chief	-9803
▁Elect	-9804
▁Intel	-9805
▁Inter	-9806
▁Korea	-9807
▁Paulo	-9808
▁Phili	-9809
▁Regul	-9810
▁Rekko	-9811
▁Singa	-9812
▁Stone	-9813
▁Their	-9814
▁Tumia	-9815
▁Umoja	-9816
▁analy	-9817
▁brave	-9818
▁brush	-9819
▁catch	-9820
▁coast	-9821
▁enhan	-9822
▁fluid	-9823
▁guest	-9824
▁hoped	-9825
▁horri	-9826
▁kikab	-9827
▁kinds	-9828
▁kuchu	-9829
▁kusta	-9830
▁lower	-9831
▁lucky	-9832
▁makao	-9833
▁miili	-9834
▁mioyo	-9835
▁mixed	-9836
▁mkate	-9837
▁oblig	-9838
▁ocean	-9839
▁prove	-9840
▁radhi	-9841
▁relie	-9842
▁shimo	-9843
▁shots	-9844
▁stock	-9845
▁stone	-9846
▁tasks	-9847
▁testo	-9848
▁tumbo	-9849
▁ukiwa	-9850
▁virtu	-9851
▁walls	-9852
▁watoa	-9853
▁weren	-9854
▁yanay	-9855
angalie	-9856
eleweka	-9857
hamisho	-9858
imately	-9859
itokeza	-9860
julishe	-9861
sterone	-9862
versity	-9863
▁Austin	-9864
▁Badala	-9865
▁Indian	-9866
▁Israel	-9867
▁Jaribu	-9868
▁Kanuni	-9869
▁Kwenye	-9870
▁Marsha	-9871
▁Oxford	-9872
▁Should	-9873
▁Street	-9874
▁Tayari	-9875
▁Thomas	-9876
▁Though	-9877
▁Wizara	-9878
▁agency	-9879
▁alijua	-9880
▁antibi	-9881
▁binamu	-9882
▁camera	-9883
▁chembe	-9884
▁deeply	-9885
▁destro	-9886
▁dhambi	-9887
▁dreams	-9888
▁exists	-9889
▁expand	-9890
▁fields	-9891
▁gotten	-9892
▁histor	-9893
▁iTunes	-9894
▁jaribu	-9895
▁kidole	-9896
▁kuenea	-9897
▁kujita	-9898
▁kunipa	-9899
▁latter	-9900
▁leseni	-9901
▁mdaiwa	-9902
▁merely	-9903
▁miamba	-9904
▁njiani	-9905
▁orders	-9906
▁pointi	-9907
▁recipe	-9908
▁reject	-9909
▁ruhusa	-9910
▁salary	-9911
▁saving	-9912
▁select	-9913
▁sikuwa	-9914
▁stated	-9915
▁stores	-9916
▁tongue	-9917
▁update	-9918
▁vichwa	-9919
▁voting	-9920
▁wadudu	-9921
indikaji	-9922
kuruhusu	-9923
mashauri	-9924
ribution	-9925
ximately	-9926
▁Buffalo	-9927
▁Capitol	-9928
▁Christo	-9929
▁Develop	-9930
▁Finally	-9931
▁Januari	-9932
▁Kufanya	-9933
▁Napenda	-9934
▁Potsdam	-9935
▁Ukurasa	-9936
▁William	-9937
▁akilini	-9938
▁becomes	-9939
▁bilioni	-9940
▁browser	-9941
▁cheaper	-9942
▁council	-9943
▁culture	-9944
▁dollars	-9945
▁enforce	-9946
▁falling	-9947
▁freedom	-9948
▁hauwezi	-9949
▁hearing	-9950
▁illness	-9951
▁ketchup	-9952
▁kihemko	-9953
▁kizuizi	-9954
▁kuigiza	-9955
▁largest	-9956
▁laundry	-9957
▁majimbo	-9958
▁manufaa	-9959
▁matakwa	-9960
▁newslet	-9961
▁package	-9962
▁passage	-9963
▁politic	-9964
▁possess	-9965
▁promise	-9966
▁protini	-9967
▁putting	-9968
▁rapidly	-9969
▁selling	-9970
▁session	-9971
▁setting	-9972
▁shorter	-9973
▁shuleni	-9974
▁sidhani	-9975
▁skilled	-9976
▁surface	-9977
▁talanta	-9978
▁transit	-9979
▁ubatili	-9980
▁warning	-9981
▁warrant	-9982
▁wauzaji	-9983
▁wedding	-9984
▁windows	-9985
ambulisha	-9986
endeshaji	-9987
ingiliana	-9988
intenance	-9989
jumuishwa	-9990
▁Biashara	-9991
▁Canadian	-9992
▁Learning	-9993
▁Nilipata	-9994
▁Security	-9995
▁accepted	-9996
▁anayejua	-9997
▁announce	-9998
▁bathroom	-9999
▁carrying	-10000
▁chatting	-10001
▁collabor	-10002
▁confused	-10003
▁contents	-10004
▁criminal	-10005
▁database	-10006
▁elements	-10007
▁enjoying	-10008
▁exciting	-10009
▁feedback	-10010
▁hutolewa	-10011
▁ilitokea	-10012
▁iliyojaa	-10013
▁jitihada	-10014
▁kijinsia	-10015
▁kitaalam	-10016
▁kiufundi	-10017
▁kuogelea	-10018
▁kupungua	-10019
▁linaweza	-10020
▁maegesho	-10021
▁mahakama	-10022
▁marriage	-10023
▁migogoro	-10024
▁overlook	-10025
▁partners	-10026
▁petition	-10027
▁presents	-10028
▁reaching	-10029
▁rejareja	-10030
▁religion	-10031
▁replaced	-10032
▁separate	-10033
▁shooting	-10034
▁tembelea	-10035
▁utaftaji	-10036
▁uthabiti	-10037
▁wanasema	-10038
▁whenever	-10039
sababishwa	-10040
▁Johnathan	-10041
▁Mashariki	-10042
▁Nilidhani	-10043
▁Professor	-10044
▁Singapore	-10045
▁Stardusty	-10046
▁administr	-10047
▁amesimama	-10048
▁continued	-10049
▁cryptocur	-10050
▁deodorant	-10051
▁discussed	-10052
▁guarantee	-10053
▁hakikisha	-10054
▁intention	-10055
▁kimaadili	-10056
▁kipumbavu	-10057
▁kisayansi	-10058
▁kivinjari	-10059
▁kujisikia	-10060
▁kuniambia	-10061
▁kuwaambia	-10062
▁kuzalisha	-10063
▁madaktari	-10064
▁madhumuni	-10065
▁mapinduzi	-10066
▁mpangilio	-10067
▁nikitumia	-10068
▁nitafanya	-10069
▁operating	-10070
▁reference	-10071
▁regularly	-10072
▁remaining	-10073
▁solutions	-10074
▁uvumilivu	-10075
▁wakifanya	-10076
▁wanajeshi	-10077
▁workplace	-10078
hughulikiwa	-10079
▁Wamarekani	-10080
▁department	-10081
▁encouraged	-10082
▁generation	-10083
▁hawakuweza	-10084
▁kipaumbele	-10085
▁kuchekesha	-10086
▁kufanikiwa	-10087
▁kujumuisha	-10088
▁maambukizi	-10089
▁mwangalifu	-10090
▁nilifikiri	-10091
▁officially	-10092
▁operations	-10093
▁previously	-10094
▁principles	-10095
▁transition	-10096
▁unaonyesha	-10097
▁wanahitaji	-10098
▁Christopher	-10099
▁authorities	-10100
▁kuchapishwa	-10101
▁kutambuliwa	-10102
▁applications	-10103
▁intelligence	-10104
▁kuunganishwa	-10105
▁testosterone	-10106
▁zinazopatikana	-10107
"?	-10108
,»	-10109
-7	-10110
.»	-10111
80	-10112
88	-10113
9)	-10114
AK	-10115
Al	-10116
BA	-10117
CH	-10118
EM	-10119
LE	-10120
PT	-10121
yn	-10122
▁<	-10123
!).	-10124
Ana	-10125
ION	-10126
Pro	-10127
Who	-10128
adr	-10129
anc	-10130
bin	-10131
bow	-10132
bya	-10133
bye	-10134
cco	-10135
fil	-10136
hol	-10137
hut	-10138
ize	-10139
lad	-10140
lii	-10141
mad	-10142
nal	-10143
pal	-10144
pia	-10145
rud	-10146
saw	-10147
thm	-10148
unk	-10149
ups	-10150
vai	-10151
yal	-10152
▁((	-10153
▁8,	-10154
▁Ax	-10155
▁BE	-10156
▁ED	-10157
▁ME	-10158
▁Nd	-10159
▁Tu	-10160
▁UT	-10161
▁Yu	-10162
▁aw	-10163
▁oz	-10164
▁sn	-10165
▁zo	-10166
!!!!	-10167
Kama	-10168
Wana	-10169
Watu	-10170
ador	-10171
adui	-10172
begu	-10173
bies	-10174
cker	-10175
doka	-10176
endi	-10177
enzo	-10178
erry	-10179
eves	-10180
figu	-10181
fort	-10182
gant	-10183
gery	-10184
gezo	-10185
ghar	-10186
idem	-10187
ikes	-10188
lean	-10189
lize	-10190
made	-10191
omat	-10192
otoa	-10193
otov	-10194
pani	-10195
plom	-10196
redi	-10197
riac	-10198
shir	-10199
terp	-10200
tupa	-10201
utub	-10202
▁10,	-10203
▁12,	-10204
▁16.	-10205
▁Amn	-10206
▁Ban	-10207
▁Big	-10208
▁Bro	-10209
▁Cra	-10210
▁Dar	-10211
▁Eli	-10212
▁Gul	-10213
▁Hat	-10214
▁Ins	-10215
▁Kip	-10216
▁Kit	-10217
▁Lie	-10218
▁Lou	-10219
▁Mik	-10220
▁Mol	-10221
▁Mot	-10222
▁Mti	-10223
▁PRO	-10224
▁Pac	-10225
▁Pip	-10226
▁Sho	-10227
▁Use	-10228
▁adm	-10229
▁aya	-10230
▁bes	-10231
▁fif	-10232
▁fly	-10233
▁jum	-10234
▁lun	-10235
▁mra	-10236
▁nam	-10237
▁ofa	-10238
▁pra	-10239
▁sem	-10240
▁ske	-10241
▁sok	-10242
▁ula	-10243
▁yum	-10244
Bones	-10245
amaha	-10246
anipa	-10247
atano	-10248
athon	-10249
belle	-10250
cceed	-10251
chell	-10252
chuzi	-10253
conut	-10254
ersey	-10255
fanua	-10256
forms	-10257
geant	-10258
hambu	-10259
hythm	-10260
icism	-10261
ifiki	-10262
ikika	-10263
ikira	-10264
istan	-10265
istry	-10266
ituni	-10267
lands	-10268
orney	-10269
ororo	-10270
osing	-10271
ousin	-10272
rahia	-10273
ramew	-10274
sters	-10275
there	-10276
tured	-10277
uklia	-10278
ulize	-10279
ximum	-10280
▁1950	-10281
▁2009	-10282
▁Back	-10283
▁Blue	-10284
▁Cast	-10285
▁Dali	-10286
▁Deli	-10287
▁Food	-10288
▁Holy	-10289
▁Home	-10290
▁Long	-10291
▁Marc	-10292
▁Miss	-10293
▁Nana	-10294
▁Play	-10295
▁Real	-10296
▁Reci	-10297
▁Rese	-10298
▁Rock	-10299
▁Supp	-10300
▁Take	-10301
▁Team	-10302
▁Tony	-10303
▁Tues	-10304
▁Weka	-10305
▁Wood	-10306
▁adui	-10307
▁arch	-10308
▁assa	-10309
▁bike	-10310
▁bomb	-10311
▁defe	-10312
▁dete	-10313
▁drug	-10314
▁east	-10315
▁hero	-10316
▁hide	-10317
▁hisa	-10318
▁huta	-10319
▁ilis	-10320
▁kale	-10321
▁keki	-10322
▁kiss	-10323
▁mafu	-10324
▁magn	-10325
▁mate	-10326
▁medi	-10327
▁ncha	-10328
▁rent	-10329
▁roll	-10330
▁rope	-10331
▁rose	-10332
▁shad	-10333
▁stri	-10334
▁tamu	-10335
▁tank	-10336
▁teen	-10337
▁tide	-10338
▁upan	-10339
▁viji	-10340
▁vipo	-10341
▁wond	-10342
amriwa	-10343
anteni	-10344
asikia	-10345
bulous	-10346
cratic	-10347
ederal	-10348
employ	-10349
esters	-10350
funika	-10351
grafia	-10352
hakama	-10353
halika	-10354
horuba	-10355
hukumu	-10356
icient	-10357
idhika	-10358
inunua	-10359
kamana	-10360
katika	-10361
kusudi	-10362
lusion	-10363
mbered	-10364
muhimu	-10365
please	-10366
shauri	-10367
umbuzi	-10368
▁Being	-10369
▁Color	-10370
▁Exper	-10371
▁Grace	-10372
▁Grand	-10373
▁Harry	-10374
▁Libya	-10375
▁Licha	-10376
▁Mtoto	-10377
▁Sales	-10378
▁Sorry	-10379
▁Usiku	-10380
▁Using	-10381
▁Uwezo	-10382
▁acces	-10383
▁angry	-10384
▁blogs	-10385
▁champ	-10386
▁chief	-10387
▁chose	-10388
▁climb	-10389
▁divai	-10390
▁fault	-10391
▁fimbo	-10392
▁flash	-10393
▁hepat	-10394
▁imara	-10395
▁joint	-10396
▁kiche	-10397
▁labor	-10398
▁leads	-10399
▁loose	-10400
▁mamia	-10401
▁marej	-10402
▁mbizi	-10403
▁micha	-10404
▁mwema	-10405
▁nadra	-10406
▁niaba	-10407
▁nyote	-10408
▁nzito	-10409
▁piano	-10410
▁pombe	-10411
▁river	-10412
▁rufaa	-10413
▁scale	-10414
▁solid	-10415
▁spoke	-10416
▁teeth	-10417
▁trial	-10418
▁trick	-10419
▁tumia	-10420
▁uliyo	-10421
▁uongo	-10422
▁upote	-10423
▁utume	-10424
▁uvuvi	-10425
▁viazi	-10426
▁vivyo	-10427
▁yange	-10428
amishwa	-10429
atikani	-10430
atively	-10431
gharimu	-10432
kamatwa	-10433
kelezwa	-10434
lection	-10435
omatiki	-10436
peshaji	-10437
punguza	-10438
ructure	-10439
vyotaka	-10440
▁Afrika	-10441
▁Bailey	-10442
▁Chukua	-10443
▁Chumba	-10444
▁Church	-10445
▁Engine	-10446
▁Fortun	-10447
▁Huwezi	-10448
▁League	-10449
▁Office	-10450
▁Sababu	-10451
▁Source	-10452
▁Tibbet	-10453
▁abroad	-10454
▁adding	-10455
▁alitoa	-10456
▁ambako	-10457
▁bigger	-10458
▁bottle	-10459
▁bright	-10460
▁brings	-10461
▁chombo	-10462
▁circum	-10463
▁combat	-10464
▁compar	-10465
▁compli	-10466
▁debtor	-10467
▁develo	-10468
▁diagno	-10469
▁elimin	-10470
▁excuse	-10471
▁female	-10472
▁forest	-10473
▁govern	-10474
▁habits	-10475
▁harder	-10476
▁hekima	-10477
▁ignore	-10478
▁illust	-10479
▁jibini	-10480
▁kifupi	-10481
▁kijana	-10482
▁kizazi	-10483
▁kujisa	-10484
▁listed	-10485
▁magumu	-10486
▁medium	-10487
▁mifupa	-10488
▁miundo	-10489
▁mnyama	-10490
▁mweusi	-10491
▁negoti	-10492
▁niseme	-10493
▁nitaka	-10494
▁nyenzo	-10495
▁owners	-10496
▁prices	-10497
▁pulled	-10498
▁pursue	-10499
▁random	-10500
▁remove	-10501
▁sexual	-10502
▁showed	-10503
▁shower	-10504
▁spouse	-10505
▁starts	-10506
▁stayed	-10507
▁stream	-10508
▁submit	-10509
▁suffer	-10510
▁survey	-10511
▁tattoo	-10512
▁topper	-10513
▁troops	-10514
▁tuweze	-10515
▁unable	-10516
▁utaona	-10517
▁values	-10518
▁vidogo	-10519
▁vikosi	-10520
▁vyumba	-10521
▁wasifu	-10522
laration	-10523
pendelea	-10524
utubisho	-10525
whelming	-10526
▁Amnesty	-10527
▁College	-10528
▁Daktari	-10529
▁Further	-10530
▁Inaweza	-10531
▁Johnson	-10532
▁Jumanne	-10533
▁Looking	-10534
▁Molotov	-10535
▁Pipriac	-10536
▁Service	-10537
▁Subject	-10538
▁agricul	-10539
▁alikufa	-10540
▁alipiga	-10541
▁alitaka	-10542
▁authors	-10543
▁comprom	-10544
▁consent	-10545
▁cooking	-10546
▁demands	-10547
▁dentist	-10548
▁edition	-10549
▁efforts	-10550
▁element	-10551
▁forever	-10552
▁hawajui	-10553
▁heavily	-10554
▁ilianza	-10555
▁ilileta	-10556
▁iliyopo	-10557
▁ingredi	-10558
▁kudhani	-10559
▁kulipwa	-10560
▁kupakua	-10561
▁kupenda	-10562
▁kurudia	-10563
▁machoni	-10564
▁maximum	-10565
▁msamaha	-10566
▁niliona	-10567
▁nuclear	-10568
▁nyuklia	-10569
▁promote	-10570
▁protein	-10571
▁signing	-10572
▁therapy	-10573
▁tufanye	-10574
▁ulemavu	-10575
▁uvamizi	-10576
▁vehicle	-10577
▁wonders	-10578
funguliwa	-10579
ingiliano	-10580
itionally	-10581
kusanyika	-10582
▁Actually	-10583
▁Japanese	-10584
▁Mitchell	-10585
▁Mtendaji	-10586
▁Research	-10587
▁Resolved	-10588
▁Tunaweza	-10589
▁Unafanya	-10590
▁alidhani	-10591
▁behavior	-10592
▁bloggers	-10593
▁category	-10594
▁compared	-10595
▁coverage	-10596
▁creation	-10597
▁cultural	-10598
▁examples	-10599
▁fabulous	-10600
▁hilohilo	-10601
▁imewekwa	-10602
▁inspired	-10603
▁instance	-10604
▁internal	-10605
▁kuchimba	-10606
▁kutimiza	-10607
▁kutofaut	-10608
▁magazeti	-10609
▁majirani	-10610
▁mattress	-10611
▁miongozo	-10612
▁mwenendo	-10613
▁navigate	-10614
▁nitakuja	-10615
▁offering	-10616
▁pleasure	-10617
▁pregnant	-10618
▁properly	-10619
▁prospect	-10620
▁selected	-10621
▁somebody	-10622
▁struggle	-10623
▁takataka	-10624
▁tutakuwa	-10625
▁unatumia	-10626
▁violence	-10627
▁wamiliki	-10628
▁wanandoa	-10629
▁wapendwa	-10630
rekebishwa	-10631
▁Alipokuwa	-10632
▁Americans	-10633
▁Mtakatifu	-10634
▁Wednesday	-10635
▁akijaribu	-10636
▁aliandika	-10637
▁aliyekufa	-10638
▁aliyekuwa	-10639
▁contribut	-10640
▁correctly	-10641
▁dangerous	-10642
▁delicious	-10643
▁delivered	-10644
▁executive	-10645
▁expressed	-10646
▁hepatitis	-10647
▁household	-10648
▁hufanyika	-10649
▁iliyokuwa	-10650
▁improving	-10651
▁inayoweza	-10652
▁kadhalika	-10653
▁kipengele	-10654
▁kuchelewa	-10655
▁kukodisha	-10656
▁kusimamia	-10657
▁materials	-10658
▁michakato	-10659
▁muhtasari	-10660
▁nilifanya	-10661
▁ninaamini	-10662
▁ninaogopa	-10663
▁ninapaswa	-10664
▁recognize	-10665
▁supported	-10666
▁technical	-10667
▁utahitaji	-10668
▁wanaamini	-10669
▁yafuatayo	-10670
▁yanapaswa	-10671
▁Commission	-10672
▁Mabadiliko	-10673
▁candidates	-10674
▁challenges	-10675
▁contribute	-10676
▁corruption	-10677
▁difficulty	-10678
▁experiment	-10679
▁highlights	-10680
▁hukuruhusu	-10681
▁identified	-10682
▁introduced	-10683
▁malalamiko	-10684
▁protesters	-10685
▁reasonable	-10686
▁remembered	-10687
▁standpoint	-10688
▁surprising	-10689
▁techniques	-10690
▁unaendelea	-10691
▁understood	-10692
▁usindikaji	-10693
▁anazungumza	-10694
▁communities	-10695
▁effectively	-10696
▁hospitalini	-10697
▁inahitajika	-10698
▁kuchukuliwa	-10699
▁kuhamasisha	-10700
▁kukaribisha	-10701
▁nilivyosema	-10702
▁ninashukuru	-10703
▁photography	-10704
▁recommended	-10705
▁replacement	-10706
▁unachofanya	-10707
▁utalazimika	-10708
▁virutubisho	-10709
▁wanaonekana	-10710
▁wanasayansi	-10711
▁inayohusiana	-10712
▁technologies	-10713
▁MyCareerShines	-10714
'.	-10715
.]	-10716
06	-10717
6)	-10718
64	-10719
7)	-10720
:)	-10721
:5	-10722
AA	-10723
DB	-10724
El	-10725
PA	-10726
RD	-10727
RL	-10728
Re	-10729
Se	-10730
ox	-10731
pr	-10732
”,	-10733
′′	-10734
!),	-10735
.1.	-10736
:15	-10737
:45	-10738
ESV	-10739
Ili	-10740
May	-10741
NYC	-10742
One	-10743
amw	-10744
bet	-10745
bri	-10746
cey	-10747
ffs	-10748
gor	-10749
gos	-10750
ikt	-10751
jud	-10752
ngu	-10753
omy	-10754
owa	-10755
put	-10756
raq	-10757
ros	-10758
rue	-10759
sar	-10760
swa	-10761
tia	-10762
was	-10763
wau	-10764
wel	-10765
wen	-10766
yed	-10767
▁"'	-10768
▁(5	-10769
▁01	-10770
▁42	-10771
▁44	-10772
▁45	-10773
▁6,	-10774
▁75	-10775
▁AD	-10776
▁BF	-10777
▁BS	-10778
▁CP	-10779
▁CR	-10780
▁DO	-10781
▁FR	-10782
▁IP	-10783
▁Ir	-10784
▁MK	-10785
▁MS	-10786
▁OK	-10787
▁Ri	-10788
▁SS	-10789
▁Vo	-10790
▁ah	-10791
▁nj	-10792
????	-10793
Tuli	-10794
alta	-10795
anzo	-10796
atis	-10797
born	-10798
cago	-10799
cale	-10800
char	-10801
cket	-10802
duzi	-10803
egas	-10804
emon	-10805
etoa	-10806
etro	-10807
fare	-10808
fast	-10809
five	-10810
flow	-10811
flux	-10812
hoga	-10813
html	-10814
ible	-10815
insi	-10816
irty	-10817
itio	-10818
kufu	-10819
lion	-10820
mark	-10821
mill	-10822
miza	-10823
odes	-10824
onym	-10825
ordi	-10826
page	-10827
rang	-10828
rell	-10829
rial	-10830
tany	-10831
ulia	-10832
usty	-10833
uted	-10834
vine	-10835
wepo	-10836
yale	-10837
yevu	-10838
▁$1,	-10839
▁13.	-10840
▁18,	-10841
▁350	-10842
▁ATM	-10843
▁Ari	-10844
▁Atl	-10845
▁CAN	-10846
▁Cry	-10847
▁Cul	-10848
▁Dan	-10849
▁Dec	-10850
▁Dri	-10851
▁Ext	-10852
▁Gro	-10853
▁Kat	-10854
▁Kur	-10855
▁Las	-10856
▁Nel	-10857
▁Oro	-10858
▁Phi	-10859
▁Pig	-10860
▁RSS	-10861
▁Smi	-10862
▁Str	-10863
▁Tar	-10864
▁Tig	-10865
▁URL	-10866
▁ast	-10867
▁ate	-10868
▁bia	-10869
▁cot	-10870
▁cro	-10871
▁fle	-10872
▁fro	-10873
▁ham	-10874
▁ila	-10875
▁jac	-10876
▁kne	-10877
▁mch	-10878
▁nom	-10879
▁pig	-10880
▁pud	-10881
▁sle	-10882
▁sty	-10883
▁uwi	-10884
▁van	-10885
▁vye	-10886
Mungu	-10887
RDNYC	-10888
achwa	-10889
amehe	-10890
anced	-10891
andwa	-10892
arasa	-10893
arted	-10894
asion	-10895
asoma	-10896
coins	-10897
elewi	-10898
eneja	-10899
erved	-10900
fairs	-10901
faney	-10902
fieds	-10903
fting	-10904
iacha	-10905
itaji	-10906
katwa	-10907
orary	-10908
otage	-10909
otoka	-10910
pedia	-10911
produ	-10912
puuza	-10913
rated	-10914
rehen	-10915
riban	-10916
sachu	-10917
setts	-10918
staur	-10919
stock	-10920
sured	-10921
ticle	-10922
yaani	-10923
zeeka	-10924
▁$500	-10925
▁1940	-10926
▁1980	-10927
▁Anti	-10928
▁Asia	-10929
▁Basi	-10930
▁Best	-10931
▁Bond	-10932
▁Cake	-10933
▁Chap	-10934
▁Fire	-10935
▁Full	-10936
▁Hall	-10937
▁Hell	-10938
▁ISIS	-10939
▁Inst	-10940
▁Iraq	-10941
▁Kans	-10942
▁Nchi	-10943
▁Nini	-10944
▁Okay	-10945
▁Pata	-10946
▁Prin	-10947
▁Seda	-10948
▁Send	-10949
▁Sita	-10950
▁Tell	-10951
▁Tsar	-10952
▁Upon	-10953
▁Very	-10954
▁Want	-10955
▁Wars	-10956
▁Yeah	-10957
▁acha	-10958
▁alar	-10959
▁bare	-10960
▁cats	-10961
▁conv	-10962
▁dawn	-10963
▁diam	-10964
▁dogo	-10965
▁fool	-10966
▁genu	-10967
▁hila	-10968
▁hole	-10969
▁inay	-10970
▁inev	-10971
▁jozi	-10972
▁lini	-10973
▁mage	-10974
▁masi	-10975
▁maua	-10976
▁mult	-10977
▁nion	-10978
▁nyan	-10979
▁plug	-10980
▁plus	-10981
▁push	-10982
▁ring	-10983
▁robo	-10984
▁roof	-10985
▁rule	-10986
▁seed	-10987
▁sets	-10988
▁sufu	-10989
▁suit	-10990
▁symp	-10991
▁taka	-10992
▁tang	-10993
▁tear	-10994
▁tent	-10995
▁tied	-10996
▁vika	-10997
▁zamu	-10998
Asante	-10999
Kerner	-11000
ambano	-11001
chosha	-11002
elines	-11003
ffered	-11004
fichwa	-11005
hangao	-11006
hedral	-11007
hicles	-11008
hutumu	-11009
idency	-11010
jfieds	-11011
kutoka	-11012
orders	-11013
ousing	-11014
pigana	-11015
tembea	-11016
terest	-11017
umilia	-11018
vative	-11019
wambia	-11020
waukee	-11021
yahudi	-11022
▁2016,	-11023
▁Adams	-11024
▁Brian	-11025
▁Court	-11026
▁Group	-11027
▁Idadi	-11028
▁Jaime	-11029
▁Light	-11030
▁Mfumo	-11031
▁Miche	-11032
▁Ndani	-11033
▁Ofisi	-11034
▁Paper	-11035
▁Photo	-11036
▁Prime	-11037
▁Progr	-11038
▁Radio	-11039
▁Small	-11040
▁Think	-11041
▁Tokyo	-11042
▁Wales	-11043
▁Women	-11044
▁Yalta	-11045
▁ajali	-11046
▁aside	-11047
▁blade	-11048
▁cards	-11049
▁chain	-11050
▁chati	-11051
▁empty	-11052
▁fidia	-11053
▁fired	-11054
▁ghali	-11055
▁graph	-11056
▁grown	-11057
▁hauja	-11058
▁homes	-11059
▁horse	-11060
▁immun	-11061
▁inapo	-11062
▁inten	-11063
▁irres	-11064
▁itawa	-11065
▁kansa	-11066
▁kikao	-11067
▁klabu	-11068
▁kuoga	-11069
▁likes	-11070
▁loves	-11071
▁match	-11072
▁mboga	-11073
▁mishi	-11074
▁mwako	-11075
▁named	-11076
▁ndipo	-11077
▁owner	-11078
▁panya	-11079
▁patch	-11080
▁proof	-11081
▁quant	-11082
▁saizi	-11083
▁sauce	-11084
▁scope	-11085
▁shati	-11086
▁shift	-11087
▁shout	-11088
▁siasa	-11089
▁slave	-11090
▁sneak	-11091
▁tight	-11092
▁ulipo	-11093
▁unalo	-11094
▁vikuu	-11095
▁wames	-11096
▁wanga	-11097
▁waste	-11098
▁weave	-11099
Ilikuwa	-11100
adilifu	-11101
aripoti	-11102
fikirie	-11103
hindana	-11104
igation	-11105
inating	-11106
istered	-11107
itially	-11108
kupenda	-11109
paganda	-11110
rejelea	-11111
rudisha	-11112
wapenda	-11113
yotumia	-11114
▁Egypti	-11115
▁Island	-11116
▁Jackie	-11117
▁Jersey	-11118
▁Jessie	-11119
▁Joseph	-11120
▁Kizazi	-11121
▁Kupata	-11122
▁Martin	-11123
▁Nelson	-11124
▁Nobody	-11125
▁Norway	-11126
▁Nyumba	-11127
▁Online	-11128
▁Orodha	-11129
▁Person	-11130
▁Really	-11131
▁Review	-11132
▁Scotty	-11133
▁Spirit	-11134
▁Stacey	-11135
▁Tatizo	-11136
▁Ukweli	-11137
▁Virgin	-11138
▁Wiggle	-11139
▁acting	-11140
▁actors	-11141
▁appeal	-11142
▁battle	-11143
▁button	-11144
▁caring	-11145
▁casual	-11146
▁compan	-11147
▁conven	-11148
▁cousin	-11149
▁dawati	-11150
▁decent	-11151
▁distin	-11152
▁double	-11153
▁driven	-11154
▁driver	-11155
▁extent	-11156
▁factor	-11157
▁failed	-11158
▁fairly	-11159
▁favour	-11160
▁fourth	-11161
▁fright	-11162
▁gentle	-11163
▁haziku	-11164
▁hearts	-11165
▁ileile	-11166
▁iliyot	-11167
▁inches	-11168
▁kupona	-11169
▁kustaa	-11170
▁lately	-11171
▁launch	-11172
▁legisl	-11173
▁linked	-11174
▁makali	-11175
▁matone	-11176
▁mchawi	-11177
▁mchuzi	-11178
▁mechan	-11179
▁mlinzi	-11180
▁mweupe	-11181
▁niweze	-11182
▁picked	-11183
▁prayer	-11184
▁priest	-11185
▁prison	-11186
▁proven	-11187
▁regime	-11188
▁relief	-11189
▁remote	-11190
▁rhythm	-11191
▁riding	-11192
▁scenes	-11193
▁senior	-11194
▁spaces	-11195
▁static	-11196
▁stored	-11197
▁tazama	-11198
▁tested	-11199
▁uchawi	-11200
▁ujifun	-11201
▁ujinga	-11202
▁ukingo	-11203
▁unyevu	-11204
▁uwiano	-11205
▁vyanzo	-11206
▁wapiga	-11207
▁widely	-11208
Nilikuwa	-11209
amilioni	-11210
ionekani	-11211
maanisha	-11212
mbuliaji	-11213
ramework	-11214
tembelea	-11215
terprise	-11216
▁Android	-11217
▁Article	-11218
▁Between	-11219
▁Chicago	-11220
▁Current	-11221
▁Despite	-11222
▁FeRDNYC	-11223
▁History	-11224
▁Kifungu	-11225
▁Kitaifa	-11226
▁Liberal	-11227
▁Perfect	-11228
▁Perform	-11229
▁Philipp	-11230
▁Recipes	-11231
▁Sellout	-11232
▁Someone	-11233
▁Takwimu	-11234
▁Through	-11235
▁Tuesday	-11236
▁Western	-11237
▁Whitney	-11238
▁akainua	-11239
▁akapiga	-11240
▁amelala	-11241
▁amounts	-11242
▁anapata	-11243
▁beloved	-11244
▁charter	-11245
▁choices	-11246
▁climate	-11247
▁comfort	-11248
▁crossed	-11249
▁decades	-11250
▁deliver	-11251
▁desired	-11252
▁dhoruba	-11253
▁discrim	-11254
▁engaged	-11255
▁experts	-11256
▁explore	-11257
▁factors	-11258
▁falsafa	-11259
▁fikiria	-11260
▁fishing	-11261
▁funding	-11262
▁genuine	-11263
▁inakuja	-11264
▁jumuiya	-11265
▁kugonga	-11266
▁kutunza	-11267
▁kuwekwa	-11268
▁machafu	-11269
▁mashoga	-11270
▁maslahi	-11271
▁mchango	-11272
▁mingine	-11273
▁mshindi	-11274
▁mtaalam	-11275
▁nifanye	-11276
▁parking	-11277
▁pulling	-11278
▁quarter	-11279
▁resolve	-11280
▁restaur	-11281
▁sending	-11282
▁shabiki	-11283
▁showing	-11284
▁sikujua	-11285
▁silence	-11286
▁somehow	-11287
▁stepped	-11288
▁succeed	-11289
▁suppose	-11290
▁ucheshi	-11291
▁ufunguo	-11292
▁umewahi	-11293
▁upanuzi	-11294
▁vikubwa	-11295
▁waajiri	-11296
▁washing	-11297
▁wearing	-11298
ikilizaji	-11299
orodhesha	-11300
▁Baseball	-11301
▁Brittany	-11302
▁Children	-11303
▁Download	-11304
▁Franklin	-11305
▁Holidays	-11306
▁Mahakama	-11307
▁Marshall	-11308
▁Massachu	-11309
▁Medicare	-11310
▁Memorial	-11311
▁Mojawapo	-11312
▁Services	-11313
▁Thompson	-11314
▁Tiffaney	-11315
▁Walakini	-11316
▁accurate	-11317
▁angekuwa	-11318
▁applying	-11319
▁birthday	-11320
▁choosing	-11321
▁collapse	-11322
▁creative	-11323
▁detailed	-11324
▁disabled	-11325
▁employer	-11326
▁expenses	-11327
▁facility	-11328
▁hakutaka	-11329
▁hatuwezi	-11330
▁huongeza	-11331
▁interact	-11332
▁kikaboni	-11333
▁kuachana	-11334
▁kuhitaji	-11335
▁kuingiza	-11336
▁masilahi	-11337
▁measures	-11338
▁mikutano	-11339
▁miongoni	-11340
▁mountain	-11341
▁mshangao	-11342
▁mwenzake	-11343
▁nilianza	-11344
▁normally	-11345
▁ordinary	-11346
▁pleasant	-11347
▁policies	-11348
▁politics	-11349
▁presence	-11350
▁priority	-11351
▁produced	-11352
▁realized	-11353
▁restrict	-11354
▁soldiers	-11355
▁somewhat	-11356
▁spending	-11357
▁suffered	-11358
▁supplies	-11359
▁syndrome	-11360
▁thousand	-11361
▁uhamisho	-11362
▁vifuniko	-11363
▁wagombea	-11364
AlexKerner	-11365
hakikishia	-11366
▁Alitazama	-11367
▁Cathedral	-11368
▁Milwaukee	-11369
▁Something	-11370
▁Utamaduni	-11371
▁advantage	-11372
▁alichukua	-11373
▁aliongeza	-11374
▁basically	-11375
▁complaint	-11376
▁dependent	-11377
▁desperate	-11378
▁fundament	-11379
▁intellect	-11380
▁kuaminika	-11381
▁kumwambia	-11382
▁kurudisha	-11383
▁mahusiano	-11384
▁presented	-11385
▁programme	-11386
▁qualified	-11387
▁residents	-11388
▁upotezaji	-11389
▁vipengele	-11390
▁waigizaji	-11391
▁wanaoishi	-11392
▁wangekuwa	-11393
jitayarisha	-11394
▁Australian	-11395
▁Ninawezaje	-11396
▁Parliament	-11397
▁Teknolojia	-11398
▁apparently	-11399
▁appearance	-11400
▁colleagues	-11401
▁determined	-11402
▁enthusiasm	-11403
▁eventually	-11404
▁guidelines	-11405
▁infections	-11406
▁kumalizika	-11407
▁kunisaidia	-11408
▁kupakuliwa	-11409
▁mahakamani	-11410
▁nilijaribu	-11411
▁occupation	-11412
▁permission	-11413
▁propaganda	-11414
▁settlement	-11415
▁thoroughly	-11416
▁Development	-11417
▁Information	-11418
▁alitabasamu	-11419
▁appointment	-11420
▁intelligent	-11421
▁kupendekeza	-11422
▁necessarily	-11423
▁possibility	-11424
▁temperature	-11425
▁kusherehekea	-11426
▁mshambuliaji	-11427
▁neighborhood	-11428
▁overwhelming	-11429
▁unachohitaji	-11430
▁Massachusetts	-11431
▁approximately	-11432
▁automatically	-11433
▁participation	-11434
▁kuchanganyikiwa	-11435
";	-11436
2)	-11437
28	-11438
33	-11439
4]	-11440
5%	-11441
92	-11442
97	-11443
AG	-11444
De	-11445
Fa	-11446
IG	-11447
RS	-11448
Ro	-11449
TW	-11450
UI	-11451
oa	-11452
tr	-11453
’.	-11454
▁»	-11455
:30	-11456
Hey	-11457
ICS	-11458
Now	-11459
Res	-11460
Usi	-11461
alm	-11462
ann	-11463
bra	-11464
cue	-11465
emy	-11466
eso	-11467
iff	-11468
iss	-11469
key	-11470
law	-11471
lli	-11472
lyn	-11473
mal	-11474
may	-11475
mea	-11476
mid	-11477
nga	-11478
nox	-11479
ont	-11480
rii	-11481
rix	-11482
tan	-11483
yar	-11484
yat	-11485
▁(4	-11486
▁//	-11487
▁1%	-11488
▁33	-11489
▁47	-11490
▁71	-11491
▁9.	-11492
▁CH	-11493
▁NI	-11494
▁OS	-11495
▁Pe	-11496
▁SC	-11497
▁Sm	-11498
▁Uj	-11499
▁aj	-11500
▁ea	-11501
▁sl	-11502
Note	-11503
When	-11504
Yeah	-11505
anor	-11506
ario	-11507
ataa	-11508
bidi	-11509
bodi	-11510
dozi	-11511
fari	-11512
firm	-11513
free	-11514
from	-11515
fted	-11516
full	-11517
hent	-11518
himo	-11519
idge	-11520
ifun	-11521
ikoa	-11522
ilis	-11523
ilit	-11524
ilot	-11525
ilty	-11526
iral	-11527
iser	-11528
itty	-11529
ized	-11530
jaza	-11531
kaji	-11532
kete	-11533
lock	-11534
lory	-11535
lose	-11536
mons	-11537
open	-11538
pair	-11539
part	-11540
puko	-11541
rade	-11542
reni	-11543
roho	-11544
roke	-11545
rows	-11546
rufi	-11547
sers	-11548
step	-11549
taja	-11550
tani	-11551
tego	-11552
tery	-11553
this	-11554
tier	-11555
town	-11556
tuko	-11557
ulum	-11558
umes	-11559
vile	-11560
will	-11561
word	-11562
▁20,	-11563
▁35.	-11564
▁400	-11565
▁Bei	-11566
▁Cre	-11567
▁Dad	-11568
▁Div	-11569
▁Dra	-11570
▁Hoo	-11571
▁Iwe	-11572
▁Key	-11573
▁Maa	-11574
▁Mur	-11575
▁Nar	-11576
▁Nov	-11577
▁Nye	-11578
▁Obs	-11579
▁Pea	-11580
▁Pur	-11581
▁Que	-11582
▁Run	-11583
▁Spa	-11584
▁Sto	-11585
▁Sup	-11586
▁Tim	-11587
▁Usa	-11588
▁Vol	-11589
▁Wel	-11590
▁Woo	-11591
▁deg	-11592
▁ene	-11593
▁ens	-11594
▁fee	-11595
▁fet	-11596
▁fli	-11597
▁hop	-11598
▁jir	-11599
▁mph	-11600
▁paa	-11601
▁pua	-11602
▁rub	-11603
▁sin	-11604
▁squ	-11605
▁tic	-11606
▁wam	-11607
▁wet	-11608
▁zim	-11609
,000.	-11610
After	-11611
Chris	-11612
Maybe	-11613
Press	-11614
amsha	-11615
andik	-11616
arian	-11617
ashfa	-11618
aster	-11619
atoes	-11620
atoon	-11621
blogi	-11622
break	-11623
chovu	-11624
cipal	-11625
class	-11626
cover	-11627
diria	-11628
guing	-11629
haust	-11630
hawia	-11631
icted	-11632
iders	-11633
iliwa	-11634
ipata	-11635
isher	-11636
itual	-11637
jiona	-11638
kuona	-11639
letwa	-11640
liant	-11641
mates	-11642
matic	-11643
ndisi	-11644
odles	-11645
oters	-11646
otoni	-11647
pered	-11648
rembo	-11649
rency	-11650
sahau	-11651
semwa	-11652
stery	-11653
unded	-11654
urugu	-11655
uting	-11656
▁1943	-11657
▁2005	-11658
▁2011	-11659
▁Acha	-11660
▁Adam	-11661
▁Alis	-11662
▁Bodi	-11663
▁Care	-11664
▁Crus	-11665
▁Ever	-11666
▁Grap	-11667
▁HAVE	-11668
▁Hapo	-11669
▁Hiya	-11670
▁IFSP	-11671
▁Jiji	-11672
▁LOVE	-11673
▁Link	-11674
▁Lots	-11675
▁Main	-11676
▁Mato	-11677
▁Mean	-11678
▁Mini	-11679
▁Morg	-11680
▁Snow	-11681
▁Sure	-11682
▁THAT	-11683
▁Tele	-11684
▁Tuta	-11685
▁Vict	-11686
▁View	-11687
▁Wafa	-11688
▁Wall	-11689
▁Wild	-11690
▁Work	-11691
▁Wote	-11692
▁admi	-11693
▁alip	-11694
▁allo	-11695
▁amem	-11696
▁cere	-11697
▁club	-11698
▁essa	-11699
▁fasc	-11700
▁flag	-11701
▁furn	-11702
▁futi	-11703
▁grey	-11704
▁haip	-11705
▁heal	-11706
▁homa	-11707
▁ilim	-11708
▁inch	-11709
▁jiwe	-11710
▁kiot	-11711
▁kisa	-11712
▁kumt	-11713
▁mart	-11714
▁ment	-11715
▁menu	-11716
▁mich	-11717
▁nane	-11718
▁nazi	-11719
▁niku	-11720
▁pepo	-11721
▁reca	-11722
▁rock	-11723
▁saru	-11724
▁sema	-11725
▁skip	-11726
▁spar	-11727
▁tail	-11728
▁tiny	-11729
▁tray	-11730
▁vain	-11731
▁wash	-11732
▁wise	-11733
▁yard	-11734
Siwezi	-11735
aneous	-11736
arable	-11737
azimia	-11738
cially	-11739
engele	-11740
enthau	-11741
etumia	-11742
fahamu	-11743
ficial	-11744
friend	-11745
graham	-11746
harani	-11747
hispan	-11748
icheka	-11749
ifuata	-11750
ifying	-11751
imisho	-11752
inform	-11753
inguni	-11754
ishiwa	-11755
japani	-11756
lation	-11757
licate	-11758
mbatia	-11759
ndered	-11760
ombaji	-11761
ombinu	-11762
ombozi	-11763
onesia	-11764
render	-11765
safiri	-11766
signed	-11767
tables	-11768
takiwa	-11769
uluhis	-11770
▁2007.	-11771
▁2010.	-11772
▁2016.	-11773
▁Bible	-11774
▁Board	-11775
▁Dunia	-11776
▁Elimu	-11777
▁Hotel	-11778
▁Human	-11779
▁Katie	-11780
▁Macho	-11781
▁Media	-11782
▁Micro	-11783
▁Mmoja	-11784
▁Model	-11785
▁Mradi	-11786
▁Nguvu	-11787
▁Panel	-11788
▁Sauti	-11789
▁Treat	-11790
▁Trust	-11791
▁Unapo	-11792
▁Young	-11793
▁anger	-11794
▁beach	-11795
▁begun	-11796
▁bills	-11797
▁birth	-11798
▁bunge	-11799
▁chetu	-11800
▁chips	-11801
▁chuma	-11802
▁conso	-11803
▁crime	-11804
▁curve	-11805
▁decla	-11806
▁delay	-11807
▁enemy	-11808
▁exces	-11809
▁files	-11810
▁foods	-11811
▁frank	-11812
▁funds	-11813
▁glasi	-11814
▁gorge	-11815
▁grafu	-11816
▁haija	-11817
▁hello	-11818
▁hobby	-11819
▁hopes	-11820
▁humor	-11821
▁hurts	-11822
▁ilini	-11823
▁inaku	-11824
▁inatu	-11825
▁indif	-11826
▁itaka	-11827
▁keeps	-11828
▁kinda	-11829
▁knock	-11830
▁kutua	-11831
▁meals	-11832
▁mechi	-11833
▁mgomo	-11834
▁msitu	-11835
▁mzigo	-11836
▁namna	-11837
▁nanyi	-11838
▁niche	-11839
▁nikif	-11840
▁ninal	-11841
▁north	-11842
▁pause	-11843
▁pilot	-11844
▁relia	-11845
▁route	-11846
▁scand	-11847
▁shore	-11848
▁sikio	-11849
▁sioni	-11850
▁slide	-11851
▁solve	-11852
▁spare	-11853
▁spell	-11854
▁sugar	-11855
▁thats	-11856
▁threw	-11857
▁tishu	-11858
▁tunge	-11859
▁unaot	-11860
▁unawa	-11861
▁upper	-11862
▁utter	-11863
▁walks	-11864
▁wingi	-11865
▁wingu	-11866
▁wound	-11867
▁yummy	-11868
Kumbuka	-11869
angulia	-11870
changia	-11871
ikilize	-11872
ilisika	-11873
ionship	-11874
ishanga	-11875
isubiri	-11876
itazama	-11877
jalishi	-11878
limisha	-11879
onekani	-11880
otafuta	-11881
outhern	-11882
pection	-11883
utation	-11884
zations	-11885
▁Bridge	-11886
▁Centre	-11887
▁Geordi	-11888
▁Infant	-11889
▁Kamati	-11890
▁Kansas	-11891
▁Maneno	-11892
▁Matrix	-11893
▁Orphan	-11894
▁Palace	-11895
▁Polish	-11896
▁Public	-11897
▁Search	-11898
▁Secret	-11899
▁Unaona	-11900
▁allerg	-11901
▁begins	-11902
▁brands	-11903
▁campus	-11904
▁chukua	-11905
▁consum	-11906
▁convin	-11907
▁crisis	-11908
▁daraja	-11909
▁decade	-11910
▁detail	-11911
▁digrii	-11912
▁divers	-11913
▁fasihi	-11914
▁faster	-11915
▁finger	-11916
▁garden	-11917
▁guilty	-11918
▁hairst	-11919
▁hatuja	-11920
▁herufi	-11921
▁hiding	-11922
▁hukumu	-11923
▁huleta	-11924
▁injury	-11925
▁instit	-11926
▁intend	-11927
▁jirani	-11928
▁kashfa	-11929
▁kikosi	-11930
▁kiraia	-11931
▁kufika	-11932
▁layout	-11933
▁majani	-11934
▁majuzi	-11935
▁makofi	-11936
▁marefu	-11937
▁marked	-11938
▁matatu	-11939
▁mifuko	-11940
▁mijini	-11941
▁pepper	-11942
▁perman	-11943
▁pieces	-11944
▁plants	-11945
▁polish	-11946
▁raundi	-11947
▁recogn	-11948
▁sample	-11949
▁scheme	-11950
▁server	-11951
▁shadow	-11952
▁sigara	-11953
▁sitaki	-11954
▁smooth	-11955
▁solely	-11956
▁strict	-11957
▁string	-11958
▁supple	-11959
▁talent	-11960
▁taught	-11961
▁tunazo	-11962
▁ufanye	-11963
▁unions	-11964
▁ustawi	-11965
▁vigezo	-11966
▁vipaji	-11967
▁vision	-11968
▁viumbe	-11969
▁volume	-11970
▁vurugu	-11971
▁waridi	-11972
▁wilaya	-11973
▁wishes	-11974
Resolved	-11975
adhaisha	-11976
angulizi	-11977
bviously	-11978
ceptable	-11979
fadhaika	-11980
gawanywa	-11981
ggsville	-11982
hukumiwa	-11983
ichocheo	-11984
ionekane	-11985
lalamika	-11986
missions	-11987
ordinary	-11988
position	-11989
punguzwa	-11990
rilliant	-11991
standing	-11992
▁Academy	-11993
▁Colonel	-11994
▁Council	-11995
▁Express	-11996
▁Gharama	-11997
▁Jumuiya	-11998
▁Kipindi	-11999
▁Kufikia	-12000
▁Matokeo	-12001
▁Meeting	-12002
▁Quarter	-12003
▁Science	-12004
▁advance	-12005
▁alikuja	-12006
▁anymore	-12007
▁assumed	-12008
▁beliefs	-12009
▁capital	-12010
▁closing	-12011
▁coconut	-12012
▁connect	-12013
▁constru	-12014
▁contemp	-12015
▁cookies	-12016
▁crucial	-12017
▁dealing	-12018
▁delight	-12019
▁deposit	-12020
▁deserve	-12021
▁designs	-12022
▁dhahabu	-12023
▁disappe	-12024
▁display	-12025
▁enemies	-12026
▁exhaust	-12027
▁expense	-12028
▁exposed	-12029
▁federal	-12030
▁figured	-12031
▁goodbye	-12032
▁granted	-12033
▁handful	-12034
▁hitting	-12035
▁inayote	-12036
▁injured	-12037
▁insight	-12038
▁jingine	-12039
▁kahawia	-12040
▁kengele	-12041
▁kiadili	-12042
▁kingono	-12043
▁kucheka	-12044
▁kuipata	-12045
▁kulazim	-12046
▁kupuuza	-12047
▁kutenda	-12048
▁lessons	-12049
▁majeshi	-12050
▁manager	-12051
▁mashimo	-12052
▁massive	-12053
▁michoro	-12054
▁minimum	-12055
▁mishipa	-12056
▁msemaji	-12057
▁mshtuko	-12058
▁muswada	-12059
▁nilijua	-12060
▁nimeona	-12061
▁objects	-12062
▁ordered	-12063
▁outcome	-12064
▁outdoor	-12065
▁passing	-12066
▁proceed	-12067
▁pumpkin	-12068
▁pushing	-12069
▁species	-12070
▁typical	-12071
▁uhitaji	-12072
▁unapata	-12073
▁utajiri	-12074
▁victims	-12075
▁violent	-12076
▁wanajua	-12077
▁wanting	-12078
▁wapenzi	-12079
▁wenyeji	-12080
▁yanayot	-12081
▁zinavyo	-12082
facturing	-12083
ikumbusha	-12084
lazimisha	-12085
undombinu	-12086
▁Festival	-12087
▁Historia	-12088
▁Unapaswa	-12089
▁Ushiriki	-12090
▁attached	-12091
▁avoiding	-12092
▁becoming	-12093
▁blogging	-12094
▁calendar	-12095
▁calories	-12096
▁circumst	-12097
▁determin	-12098
▁employee	-12099
▁engineer	-12100
▁extended	-12101
▁festival	-12102
▁findings	-12103
▁gorgeous	-12104
▁identify	-12105
▁imeundwa	-12106
▁informed	-12107
▁intended	-12108
▁kuchosha	-12109
▁kuhitimu	-12110
▁kuripoti	-12111
▁kuungana	-12112
▁laughing	-12113
▁madarasa	-12114
▁maishani	-12115
▁marufuku	-12116
▁matineja	-12117
▁millions	-12118
▁mistakes	-12119
▁mitandao	-12120
▁mtumishi	-12121
▁nilipata	-12122
▁opposite	-12123
▁patterns	-12124
▁preserve	-12125
▁promised	-12126
▁rejected	-12127
▁relation	-12128
▁shopping	-12129
▁sleeping	-12130
▁studying	-12131
▁substant	-12132
▁superior	-12133
▁takriban	-12134
▁uhamiaji	-12135
▁uhandisi	-12136
▁uliokuwa	-12137
▁utafanya	-12138
▁variable	-12139
▁vipodozi	-12140
fuatiliaji	-12141
▁Communist	-12142
▁Mwanamume	-12143
▁Uchunguzi	-12144
▁WordPress	-12145
▁akichukua	-12146
▁apartment	-12147
▁appointed	-12148
▁celebrate	-12149
▁childhood	-12150
▁conscious	-12151
▁corporate	-12152
▁depending	-12153
▁determine	-12154
▁efficient	-12155
▁employers	-12156
▁existence	-12157
▁fireplace	-12158
▁hadharani	-12159
▁hangeweza	-12160
▁hitimisho	-12161
▁hopefully	-12162
▁impressed	-12163
▁installed	-12164
▁kimkakati	-12165
▁kuhamisha	-12166
▁kukomesha	-12167
▁mamilioni	-12168
▁mwenzangu	-12169
▁newspaper	-12170
▁nilipaswa	-12171
▁nilitumia	-12172
▁ninatumia	-12173
▁paragraph	-12174
▁procedure	-12175
▁producing	-12176
▁protected	-12177
▁qualities	-12178
▁reporting	-12179
▁requested	-12180
▁submitted	-12181
▁traveling	-12182
▁ustaarabu	-12183
▁wapumbavu	-12184
▁washirika	-12185
athibitisha	-12186
idemokrasia	-12187
linganishwa	-12188
ounganishwa	-12189
rastructure	-12190
▁Morgenthau	-12191
▁Protection	-12192
▁accessible	-12193
▁background	-12194
▁concerning	-12195
▁foundation	-12196
▁frequently	-12197
▁haingekuwa	-12198
▁importance	-12199
▁innovative	-12200
▁integrated	-12201
▁kibaolojia	-12202
▁kufilisika	-12203
▁kukamilika	-12204
▁kuondolewa	-12205
▁performing	-12206
▁physically	-12207
▁processing	-12208
▁recognized	-12209
▁scientists	-12210
▁television	-12211
▁ultimately	-12212
▁wanasheria	-12213
▁wangependa	-12214
▁Halmashauri	-12215
▁advertising	-12216
▁agriculture	-12217
▁akitabasamu	-12218
▁cholesterol	-12219
▁complicated	-12220
▁enforcement	-12221
▁essentially	-12222
▁frustrating	-12223
▁improvement	-12224
▁ingredients	-12225
▁kiotomatiki	-12226
▁kuingiliana	-12227
▁kuwashukuru	-12228
▁newsletters	-12229
▁nilifurahia	-12230
▁ninatazamia	-12231
▁participate	-12232
▁uendelezaji	-12233
▁wakopeshaji	-12234
▁Nevertheless	-12235
▁accomplished	-12236
▁intellectual	-12237
▁kutofautisha	-12238
▁yamekusanywa	-12239
▁environmental	-12240
▁inavyoonekana	-12241
▁yaliyojaribiwa	-12242
!?	-12243
")	-12244
.6	-12245
/3	-12246
1/	-12247
25	-12248
2]	-12249
4:	-12250
55	-12251
60	-12252
61	-12253
68	-12254
98	-12255
BB	-12256
DP	-12257
FL	-12258
LD	-12259
Lo	-12260
Mo	-12261
NA	-12262
NC	-12263
On	-12264
Os	-12265
PV	-12266
SM	-12267
UD	-12268
bq	-12269
io	-12270
ju	-12271
mn	-12272
rn	-12273
áh	-12274
—"	-12275
▁)	-12276
▁>	-12277
▁q	-12278
▁§	-12279
▁́	-12280
▁”	-12281
▁😉	-12282
ACK	-12283
All	-12284
Com	-12285
ERS	-12286
Mat	-12287
Not	-12288
ORT	-12289
app	-12290
apt	-12291
aza	-12292
bit	-12293
boy	-12294
cio	-12295
dis	-12296
erd	-12297
exp	-12298
fts	-12299
kup	-12300
nie	-12301
oga	-12302
oul	-12303
peo	-12304
rie	-12305
sky	-12306
sni	-12307
tim	-12308
wal	-12309
web	-12310
xia	-12311
yer	-12312
zio	-12313
▁''	-12314
▁(@	-12315
▁0.	-12316
▁03	-12317
▁38	-12318
▁56	-12319
▁84	-12320
▁9/	-12321
▁CA	-12322
▁CM	-12323
▁Em	-12324
▁IV	-12325
▁LE	-12326
▁NS	-12327
▁PS	-12328
▁RP	-12329
▁RT	-12330
▁SM	-12331
▁Um	-12332
▁eh	-12333
▁vs	-12334
)...	-12335
Good	-12336
Then	-12337
ampa	-12338
ardi	-12339
baka	-12340
beth	-12341
bihu	-12342
bors	-12343
chis	-12344
ckle	-12345
cont	-12346
core	-12347
ctic	-12348
cure	-12349
date	-12350
died	-12351
earl	-12352
eleo	-12353
elev	-12354
enin	-12355
erra	-12356
fill	-12357
foll	-12358
four	-12359
hard	-12360
hema	-12361
hire	-12362
http	-12363
ifts	-12364
ikit	-12365
iner	-12366
inux	-12367
ives	-12368
ivey	-12369
kane	-12370
kevu	-12371
kiri	-12372
kter	-12373
kuli	-12374
lafu	-12375
lain	-12376
lden	-12377
lica	-12378
lláh	-12379
mbua	-12380
midt	-12381
name	-12382
oker	-12383
omvi	-12384
only	-12385
oter	-12386
ours	-12387
pate	-12388
paya	-12389
pian	-12390
remy	-12391
rink	-12392
smet	-12393
spot	-12394
sted	-12395
thew	-12396
tive	-12397
turi	-12398
ulin	-12399
usha	-12400
uten	-12401
vacy	-12402
vana	-12403
vuja	-12404
wazo	-12405
yeye	-12406
yoni	-12407
zeti	-12408
▁($1	-12409
▁1-8	-12410
▁10%	-12411
▁13,	-12412
▁15.	-12413
▁180	-12414
▁20.	-12415
▁21,	-12416
▁24,	-12417
▁250	-12418
▁27,	-12419
▁29,	-12420
▁2:1	-12421
▁70%	-12422
▁Abu	-12423
▁Ala	-12424
▁BBC	-12425
▁BTW	-12426
▁Bel	-12427
▁Bul	-12428
▁Cla	-12429
▁Cle	-12430
▁Dom	-12431
▁Due	-12432
▁Exp	-12433
▁Fal	-12434
▁Fer	-12435
▁Gur	-12436
▁Has	-12437
▁Hes	-12438
▁Isa	-12439
▁Joe	-12440
▁Jon	-12441
▁Juu	-12442
▁Lot	-12443
▁Men	-12444
▁Mom	-12445
▁Naz	-12446
▁Nur	-12447
▁Pet	-12448
▁PhD	-12449
▁Pit	-12450
▁Rum	-12451
▁Rus	-12452
▁Sea	-12453
▁Spo	-12454
▁Ten	-12455
▁Thi	-12456
▁Too	-12457
▁Tor	-12458
▁UBC	-12459
▁USA	-12460
▁Van	-12461
▁Zoe	-12462
▁bbq	-12463
▁ble	-12464
▁bub	-12465
▁det	-12466
▁esc	-12467
▁gam	-12468
▁gap	-12469
▁jes	-12470
▁lou	-12471
▁mab	-12472
▁mig	-12473
▁pad	-12474
▁pap	-12475
▁phr	-12476
▁raw	-12477
▁rhe	-12478
▁thy	-12479
▁toy	-12480
▁wab	-12481
▁waj	-12482
▁zit	-12483
Ellis	-12484
Tangu	-12485
Where	-12486
adier	-12487
ading	-12488
agiza	-12489
althy	-12490
anada	-12491
andon	-12492
anssi	-12493
arest	-12494
ategy	-12495
berry	-12496
elome	-12497
erver	-12498
estly	-12499
exper	-12500
found	-12501
gosla	-12502
grade	-12503
haifu	-12504
herry	-12505
idika	-12506
igaji	-12507
iking	-12508
ikisa	-12509
illes	-12510
inate	-12511
inent	-12512
inson	-12513
inted	-12514
itals	-12515
itors	-12516
ketch	-12517
labor	-12518
ogope	-12519
orted	-12520
ounga	-12521
paste	-12522
patao	-12523
ption	-12524
raine	-12525
ricia	-12526
scale	-12527
sting	-12528
umley	-12529
unguu	-12530
uthor	-12531
vanta	-12532
wanya	-12533
white	-12534
▁"...	-12535
▁$200	-12536
▁$250	-12537
▁(201	-12538
▁Alim	-12539
▁Auto	-12540
▁Bank	-12541
▁Body	-12542
▁Dakt	-12543
▁Dami	-12544
▁Dani	-12545
▁Dave	-12546
▁Dire	-12547
▁Eric	-12548
▁Feel	-12549
▁Finn	-12550
▁Fort	-12551
▁Fred	-12552
▁GetF	-12553
▁HAPP	-12554
▁Hadi	-12555
▁Hofu	-12556
▁Hull	-12557
▁Jama	-12558
▁Java	-12559
▁Jean	-12560
▁Jeff	-12561
▁Joey	-12562
▁Kind	-12563
▁Left	-12564
▁Mick	-12565
▁Note	-12566
▁Requ	-12567
▁Room	-12568
▁Rose	-12569
▁Saba	-12570
▁Sean	-12571
▁Spec	-12572
▁Stud	-12573
▁Swan	-12574
▁Swed	-12575
▁Thus	-12576
▁Wazo	-12577
▁Wolf	-12578
▁Worf	-12579
▁ages	-12580
▁aliy	-12581
▁athe	-12582
▁baya	-12583
▁cell	-12584
▁clar	-12585
▁clot	-12586
▁cook	-12587
▁dish	-12588
▁fara	-12589
▁fati	-12590
▁flex	-12591
▁fond	-12592
▁fron	-12593
▁gear	-12594
▁grew	-12595
▁haha	-12596
▁iron	-12597
▁irre	-12598
▁juma	-12599
▁kuip	-12600
▁kuti	-12601
▁maum	-12602
▁mini	-12603
▁mois	-12604
▁mole	-12605
▁narr	-12606
▁neva	-12607
▁node	-12608
▁odds	-12609
▁pale	-12610
▁pete	-12611
▁pile	-12612
▁pros	-12613
▁puts	-12614
▁sate	-12615
▁scat	-12616
▁scri	-12617
▁smar	-12618
▁soil	-12619
▁stim	-12620
▁stir	-12621
▁todd	-12622
▁tool	-12623
▁uasi	-12624
▁uchi	-12625
▁ugun	-12626
▁unas	-12627
▁unif	-12628
▁uovu	-12629
▁usim	-12630
▁wapo	-12631
▁wasa	-12632
▁wire	-12633
▁zenu	-12634
▁ziko	-12635
......	-12636
Hapana	-12637
Huenda	-12638
Thanks	-12639
Unajua	-12640
angers	-12641
antiki	-12642
arious	-12643
ateful	-12644
changa	-12645
commun	-12646
cripts	-12647
endewa	-12648
fanyia	-12649
father	-12650
filipi	-12651
gennes	-12652
giving	-12653
hawabu	-12654
hentic	-12655
ichina	-12656
icious	-12657
ifunze	-12658
ikteta	-12659
imizwa	-12660
ishing	-12661
isikie	-12662
islamu	-12663
kteria	-12664
lelewa	-12665
millan	-12666
organi	-12667
orizon	-12668
riends	-12669
rising	-12670
rofesa	-12671
season	-12672
sembly	-12673
soever	-12674
sphere	-12675
takuwa	-12676
tering	-12677
udisha	-12678
ulated	-12679
unning	-12680
wadays	-12681
walimu	-12682
▁1941,	-12683
▁1996.	-12684
▁2008.	-12685
▁2013,	-12686
▁2013.	-12687
▁Agree	-12688
▁Archi	-12689
▁Award	-12690
▁Books	-12691
▁Bunge	-12692
▁Chair	-12693
▁Const	-12694
▁Craig	-12695
▁Donal	-12696
▁Hosni	-12697
▁Hutch	-12698
▁Jinsi	-12699
▁Joyce	-12700
▁Kevin	-12701
▁Lymon	-12702
▁Marco	-12703
▁Pearl	-12704
▁Power	-12705
▁Produ	-12706
▁Relev	-12707
▁Smith	-12708
▁Three	-12709
▁Vegas	-12710
▁Vifaa	-12711
▁Warid	-12712
▁Zaire	-12713
▁actor	-12714
▁adult	-12715
▁blind	-12716
▁boats	-12717
▁chart	-12718
▁cloud	-12719
▁crash	-12720
▁cycle	-12721
▁decay	-12722
▁decor	-12723
▁divor	-12724
▁friji	-12725
▁grace	-12726
▁guard	-12727
▁hawat	-12728
▁heads	-12729
▁holds	-12730
▁hujui	-12731
▁intri	-12732
▁kutat	-12733
▁liber	-12734
▁logic	-12735
▁lying	-12736
▁mbuzi	-12737
▁mraba	-12738
▁mtego	-12739
▁mungu	-12740
▁mwitu	-12741
▁ndevu	-12742
▁ndilo	-12743
▁njema	-12744
▁noted	-12745
▁nurse	-12746
▁nyuzi	-12747
▁panel	-12748
▁phase	-12749
▁plain	-12750
▁prize	-12751
▁quote	-12752
▁radar	-12753
▁radio	-12754
▁rebar	-12755
▁redio	-12756
▁rinse	-12757
▁sacri	-12758
▁screw	-12759
▁shake	-12760
▁sharp	-12761
▁signs	-12762
▁silly	-12763
▁spect	-12764
▁spill	-12765
▁spons	-12766
▁susta	-12767
▁talks	-12768
▁towns	-12769
▁tuned	-12770
▁ukali	-12771
▁ukara	-12772
▁unazo	-12773
▁units	-12774
▁upate	-12775
▁usemi	-12776
▁usiwe	-12777
▁vikao	-12778
▁vipya	-12779
▁volun	-12780
▁wacha	-12781
▁walit	-12782
▁weird	-12783
▁zimes	-12784
Unaweza	-12785
amahani	-12786
asafiri	-12787
ativity	-12788
boresho	-12789
essment	-12790
hindano	-12791
ingizio	-12792
iruhusu	-12793
kebisha	-12794
mentary	-12795
ndering	-12796
onekano	-12797
ongozwa	-12798
onymous	-12799
pumzika	-12800
quality	-12801
respond	-12802
shiriki	-12803
stopian	-12804
through	-12805
unuliwa	-12806
zuiliwa	-12807
▁Angela	-12808
▁Arfoll	-12809
▁Austen	-12810
▁Avenue	-12811
▁Castle	-12812
▁Corona	-12813
▁Denver	-12814
▁Easter	-12815
▁Giants	-12816
▁Harbor	-12817
▁Invest	-12818
▁Jeremy	-12819
▁Marley	-12820
▁Merlin	-12821
▁Millie	-12822
▁Nataka	-12823
▁Plexus	-12824
▁Plugin	-12825
▁Prague	-12826
▁Rafiki	-12827
▁Russia	-12828
▁Series	-12829
▁Sierra	-12830
▁Spivey	-12831
▁Ulinzi	-12832
▁Uuzaji	-12833
▁Wazazi	-12834
▁Wilaya	-12835
▁abiria	-12836
▁asleep	-12837
▁assets	-12838
▁babies	-12839
▁behalf	-12840
▁borrow	-12841
▁capita	-12842
▁correl	-12843
▁cosmet	-12844
▁covers	-12845
▁crying	-12846
▁defend	-12847
▁dereva	-12848
▁engage	-12849
▁excite	-12850
▁explan	-12851
▁facing	-12852
▁faraja	-12853
▁fikira	-12854
▁flying	-12855
▁gaming	-12856
▁guests	-12857
▁handed	-12858
▁hardly	-12859
▁hawaja	-12860
▁height	-12861
▁humans	-12862
▁hunger	-12863
▁hungry	-12864
▁imejaa	-12865
▁implic	-12866
▁intent	-12867
▁jacket	-12868
▁joined	-12869
▁karamu	-12870
▁kiafya	-12871
▁kibaya	-12872
▁kiroho	-12873
▁kisiwa	-12874
▁kubaki	-12875
▁kuiona	-12876
▁kuvuta	-12877
▁kuzima	-12878
▁larger	-12879
▁leaves	-12880
▁maadui	-12881
▁models	-12882
▁mwendo	-12883
▁nasibu	-12884
▁native	-12885
▁ninalo	-12886
▁papers	-12887
▁passes	-12888
▁phones	-12889
▁profit	-12890
▁psycho	-12891
▁pushed	-12892
▁rarely	-12893
▁reader	-12894
▁reduce	-12895
▁regret	-12896
▁repeat	-12897
▁resume	-12898
▁sayari	-12899
▁sector	-12900
▁tabaka	-12901
▁tajiri	-12902
▁timing	-12903
▁tulipo	-12904
▁uchovu	-12905
▁ugomvi	-12906
▁ukungu	-12907
▁ulicho	-12908
▁unlike	-12909
▁upweke	-12910
▁ushuru	-12911
▁waters	-12912
▁weblog	-12913
▁widget	-12914
▁winner	-12915
andalizi	-12916
aniambia	-12917
athamini	-12918
aturally	-12919
endeshwa	-12920
enifanya	-12921
enyekevu	-12922
fanuliwa	-12923
hangazwa	-12924
husishwa	-12925
ikolojia	-12926
jadiliwa	-12927
kasirika	-12928
ogopesha	-12929
zungumze	-12930
▁Alabama	-12931
▁Century	-12932
▁Company	-12933
▁Country	-12934
▁Crumley	-12935
▁Furahia	-12936
▁Germans	-12937
▁Hillary	-12938
▁Indians	-12939
▁Itakuwa	-12940
▁Italian	-12941
▁Kuanzia	-12942
▁Library	-12943
▁Matthew	-12944
▁Mwalimu	-12945
▁Nothing	-12946
▁Pacific	-12947
▁Program	-12948
▁Regular	-12949
▁Richard	-12950
▁Sayansi	-12951
▁Schmidt	-12952
▁Section	-12953
▁Seventh	-12954
▁Several	-12955
▁Sidhani	-12956
▁Society	-12957
▁Station	-12958
▁Studies	-12959
▁Studios	-12960
▁Wanaume	-12961
▁Windows	-12962
▁Writing	-12963
▁Yugosla	-12964
▁akiweka	-12965
▁alinipa	-12966
▁amekufa	-12967
▁amongst	-12968
▁anayeta	-12969
▁anybody	-12970
▁archite	-12971
▁arrival	-12972
▁auction	-12973
▁burning	-12974
▁calorie	-12975
▁capture	-12976
▁centers	-12977
▁chapter	-12978
▁charged	-12979
▁charity	-12980
▁chronic	-12981
▁closely	-12982
▁cockpit	-12983
▁compens	-12984
▁concert	-12985
▁defense	-12986
▁deliber	-12987
▁dressed	-12988
▁dropped	-12989
▁entered	-12990
▁examine	-12991
▁fashion	-12992
▁fitness	-12993
▁fulfill	-12994
▁halfway	-12995
▁hanging	-12996
▁instant	-12997
▁invited	-12998
▁involve	-12999
▁kalenda	-13000
▁kibanda	-13001
▁kifalme	-13002
▁kuajiri	-13003
▁kublogi	-13004
▁kuchora	-13005
▁kuiweka	-13006
▁kukasir	-13007
▁kukuona	-13008
▁kulisha	-13009
▁kumpiga	-13010
▁lawyers	-13011
▁located	-13012
▁maabara	-13013
▁mageuzi	-13014
▁maktaba	-13015
▁mgombea	-13016
▁mothers	-13017
▁msalaba	-13018
▁msanidi	-13019
▁muscles	-13020
▁muuguzi	-13021
▁muuzaji	-13022
▁mvutano	-13023
▁mystery	-13024
▁observe	-13025
▁opposed	-13026
▁organic	-13027
▁painful	-13028
▁persons	-13029
▁privile	-13030
▁remains	-13031
▁restore	-13032
▁sipendi	-13033
▁smarter	-13034
▁streets	-13035
▁surgery	-13036
▁tafsiri	-13037
▁testing	-13038
▁trained	-13039
▁tulivyo	-13040
▁tumaini	-13041
▁tunajua	-13042
▁tutaona	-13043
▁udhaifu	-13044
▁ukatili	-13045
▁ulianza	-13046
▁umakini	-13047
▁umepata	-13048
▁unknown	-13049
▁unyoofu	-13050
▁upigaji	-13051
▁utakapo	-13052
▁utotoni	-13053
▁vifungo	-13054
▁visited	-13055
▁visivyo	-13056
▁wajumbe	-13057
▁wapatao	-13058
▁western	-13059
▁witness	-13060
▁workout	-13061
▁worried	-13062
▁zilizot	-13063
enganisha	-13064
hatarisha	-13065
▁Birthday	-13066
▁Everyone	-13067
▁Graphite	-13068
▁Jenerali	-13069
▁Moreover	-13070
▁Mountain	-13071
▁Muungano	-13072
▁Mwanamke	-13073
▁Newsweek	-13074
▁Patricia	-13075
▁Programu	-13076
▁Republic	-13077
▁Response	-13078
▁Robinson	-13079
▁Sergeant	-13080
▁Tathmini	-13081
▁Uhusiano	-13082
▁Victoria	-13083
▁Wafilipi	-13084
▁Wakristo	-13085
▁Walikuwa	-13086
▁Wanawake	-13087
▁Williams	-13088
▁academic	-13089
▁admitted	-13090
▁advanced	-13091
▁approval	-13092
▁arrested	-13093
▁atafanya	-13094
▁bakteria	-13095
▁bankrupt	-13096
▁blanketi	-13097
▁breaking	-13098
▁clinical	-13099
▁constant	-13100
▁consumer	-13101
▁drinking	-13102
▁finalist	-13103
▁hajawahi	-13104
▁hayakuwa	-13105
▁hundreds	-13106
▁improved	-13107
▁incident	-13108
▁injuries	-13109
▁kifuniko	-13110
▁kikatili	-13111
▁kiongozi	-13112
▁kuathiri	-13113
▁kufurahi	-13114
▁kuwekeza	-13115
▁kuziweka	-13116
▁machines	-13117
▁matajiri	-13118
▁maumbile	-13119
▁mbinguni	-13120
▁mnyororo	-13121
▁mwanangu	-13122
▁nitarudi	-13123
▁occurred	-13124
▁painting	-13125
▁patience	-13126
▁planting	-13127
▁pursuant	-13128
▁qualific	-13129
▁rational	-13130
▁reaction	-13131
▁resolved	-13132
▁sensible	-13133
▁shoulder	-13134
▁sikuwahi	-13135
▁sikuweza	-13136
▁sticking	-13137
▁strictly	-13138
▁suggests	-13139
▁surprise	-13140
▁transfer	-13141
▁uadilifu	-13142
▁uangalie	-13143
▁ugunduzi	-13144
▁ultimate	-13145
▁uthamini	-13146
▁uvumbuzi	-13147
▁vitunguu	-13148
▁wachanga	-13149
▁wahitimu	-13150
▁walisema	-13151
▁washindi	-13152
▁wataalam	-13153
▁yaleyale	-13154
ChrisEllis	-13155
identified	-13156
▁Alexander	-13157
▁Bioinform	-13158
▁GetFunded	-13159
▁Indonesia	-13160
▁Meanwhile	-13161
▁Unahitaji	-13162
▁Vergennes	-13163
▁Watumiaji	-13164
▁alishinda	-13165
▁alitazama	-13166
▁alizaliwa	-13167
▁anafikiri	-13168
▁attending	-13169
▁classroom	-13170
▁companion	-13171
▁concluded	-13172
▁confident	-13173
▁confusion	-13174
▁connected	-13175
▁contained	-13176
▁criticism	-13177
▁developer	-13178
▁estimated	-13179
▁forgotten	-13180
▁framework	-13181
▁gathering	-13182
▁hairstyle	-13183
▁hospitals	-13184
▁hupunguza	-13185
▁ifuatavyo	-13186
▁imefanywa	-13187
▁imefungwa	-13188
▁inayoitwa	-13189
▁kuchangia	-13190
▁kuchochea	-13191
▁kuelekeza	-13192
▁kueleweka	-13193
▁kukufanya	-13194
▁kumsaidia	-13195
▁kumtazama	-13196
▁kupitisha	-13197
▁kuvunjika	-13198
▁kuwezesha	-13199
▁maboresho	-13200
▁mapambano	-13201
▁marejeleo	-13202
▁neighbors	-13203
▁nilipenda	-13204
▁nimefanya	-13205
▁objective	-13206
▁officials	-13207
▁photograp	-13208
▁practical	-13209
▁providing	-13210
▁relatives	-13211
▁responded	-13212
▁satisfied	-13213
▁structure	-13214
▁struggles	-13215
▁subscribe	-13216
▁telephone	-13217
▁tunadhani	-13218
▁ukarabati	-13219
▁unapokuwa	-13220
▁unayotaka	-13221
▁wahamiaji	-13222
▁wondering	-13223
▁zinafanya	-13224
andikishaji	-13225
jiandikisha	-13226
wasilishaji	-13227
▁Enterprise	-13228
▁Ninavutiwa	-13229
▁Relevanssi	-13230
▁Superstock	-13231
▁Wajerumani	-13232
▁acceptable	-13233
▁acceptance	-13234
▁affordable	-13235
▁alimwambia	-13236
▁anafikiria	-13237
▁anayefanya	-13238
▁antibiotic	-13239
▁components	-13240
▁conclusion	-13241
▁discipline	-13242
▁efficiency	-13243
▁haionekani	-13244
▁impression	-13245
▁incredibly	-13246
▁interviews	-13247
▁kisingizio	-13248
▁kuanzishwa	-13249
▁kujifungua	-13250
▁kupendezwa	-13251
▁kushindana	-13252
▁kutokuwamo	-13253
▁lililokuwa	-13254
▁nilichukua	-13255
▁ninajaribu	-13256
▁overlooked	-13257
▁perception	-13258
▁perfection	-13259
▁philosophy	-13260
▁regulation	-13261
▁remarkable	-13262
▁reputation	-13263
▁statements	-13264
▁tulipokuwa	-13265
▁unavyoweza	-13266
▁wanatafuta	-13267
▁whatsoever	-13268
▁Philippians	-13269
▁Ushirikiano	-13270
▁alilazimika	-13271
▁alternative	-13272
▁approaching	-13273
▁combination	-13274
▁competitive	-13275
▁consequence	-13276
▁encouraging	-13277
▁engineering	-13278
▁inatarajiwa	-13279
▁inspiration	-13280
▁interactive	-13281
▁journalists	-13282
▁kilichokuwa	-13283
▁kuambukizwa	-13284
▁kufadhaisha	-13285
▁kushambulia	-13286
▁maintenance	-13287
▁matengenezo	-13288
▁ninachoweza	-13289
▁publication	-13290
▁suggestions	-13291
▁yanayotokea	-13292
▁Additionally	-13293
▁appreciation	-13294
▁consequences	-13295
▁iliyoandikwa	-13296
▁inayotegemea	-13297
▁independence	-13298
▁institutions	-13299
▁kidemokrasia	-13300
▁kumshambulia	-13301
▁kusimamishwa	-13302
▁nilivyofanya	-13303
▁observations	-13304
▁organisation	-13305
▁wanakabiliwa	-13306
▁zinahitajika	-13307
▁extraordinary	-13308
▁kujitayarisha	-13309
▁manufacturing	-13310
▁significantly	-13311
▁watengenezaji	-13312
▁Bioinformatics	-13313
▁Holidaysplease	-13314
▁ikilinganishwa	-13315
▁iliyochaguliwa	-13316
▁implementation	-13317
05	-13318
26	-13319
35	-13320
67	-13321
70	-13322
Am	-13323
Cs	-13324
EW	-13325
Gu	-13326
MV	-13327
PS	-13328
Ps	-13329
UL	-13330
WA	-13331
ab	-13332
ix	-13333
jc	-13334
wl	-13335
yi	-13336
▁{	-13337
▁·	-13338
.».	-13339
800	-13340
ERE	-13341
ESS	-13342
Hat	-13343
INE	-13344
LLY	-13345
TER	-13346
Wat	-13347
Why	-13348
ain	-13349
arn	-13350
bed	-13351
bic	-13352
cia	-13353
cop	-13354
ctu	-13355
dra	-13356
fix	-13357
fty	-13358
fuo	-13359
git	-13360
hma	-13361
huz	-13362
hyd	-13363
iba	-13364
ier	-13365
isc	-13366
joy	-13367
kle	-13368
lon	-13369
lot	-13370
mat	-13371
oka	-13372
ool	-13373
phe	-13374
phi	-13375
pie	-13376
poo	-13377
rer	-13378
roc	-13379
sex	-13380
sio	-13381
sub	-13382
tem	-13383
yey	-13384
zot	-13385
zwe	-13386
▁#1	-13387
▁3-	-13388
▁4-	-13389
▁6-	-13390
▁<3	-13391
▁Ag	-13392
▁BO	-13393
▁EX	-13394
▁FA	-13395
▁HI	-13396
▁Hy	-13397
▁Lt	-13398
▁MP	-13399
▁Op	-13400
▁Wy	-13401
▁eq	-13402
▁fr	-13403
▁ic	-13404
...)	-13405
AMIL	-13406
Hilo	-13407
Okay	-13408
Over	-13409
Star	-13410
adai	-13411
aded	-13412
amfu	-13413
amps	-13414
andy	-13415
aped	-13416
asia	-13417
atoo	-13418
atre	-13419
atta	-13420
away	-13421
bada	-13422
bbed	-13423
beat	-13424
bian	-13425
bine	-13426
chor	-13427
dumu	-13428
edly	-13429
enez	-13430
enia	-13431
erie	-13432
etry	-13433
ggie	-13434
ghan	-13435
icip	-13436
iety	-13437
imar	-13438
imbi	-13439
isms	-13440
isse	-13441
ived	-13442
keys	-13443
lezi	-13444
lika	-13445
llen	-13446
llon	-13447
mbie	-13448
mkwe	-13449
okes	-13450
onwa	-13451
owed	-13452
pied	-13453
pili	-13454
plan	-13455
pret	-13456
rers	-13457
rics	-13458
rier	-13459
rors	-13460
ruff	-13461
shes	-13462
sibu	-13463
siku	-13464
soft	-13465
stra	-13466
sudi	-13467
talk	-13468
teen	-13469
then	-13470
umbs	-13471
umii	-13472
vada	-13473
vals	-13474
vivu	-13475
vuke	-13476
yard	-13477
zers	-13478
zozo	-13479
▁$10	-13480
▁1-2	-13481
▁10-	-13482
▁12.	-13483
▁17,	-13484
▁188	-13485
▁23.	-13486
▁28,	-13487
▁ACA	-13488
▁ARC	-13489
▁Ara	-13490
▁Boo	-13491
▁Buc	-13492
▁Bud	-13493
▁Cup	-13494
▁Die	-13495
▁EDU	-13496
▁Eff	-13497
▁Gen	-13498
▁Gre	-13499
▁Hmm	-13500
▁Jos	-13501
▁Kil	-13502
▁Les	-13503
▁Mto	-13504
▁Nit	-13505
▁Opt	-13506
▁Ord	-13507
▁Pak	-13508
▁Qua	-13509
▁Rel	-13510
▁Rem	-13511
▁Rom	-13512
▁SLA	-13513
▁Six	-13514
▁Son	-13515
▁TNG	-13516
▁Uho	-13517
▁Uko	-13518
▁Win	-13519
▁Yep	-13520
▁[10	-13521
▁ade	-13522
▁aku	-13523
▁aro	-13524
▁eng	-13525
▁era	-13526
▁gat	-13527
▁gly	-13528
▁idi	-13529
▁lan	-13530
▁maw	-13531
▁nid	-13532
▁pis	-13533
▁por	-13534
▁ric	-13535
▁sab	-13536
▁seg	-13537
▁sni	-13538
▁sus	-13539
▁vik	-13540
▁vin	-13541
▁yak	-13542
Labda	-13543
Thank	-13544
alogy	-13545
amano	-13546
anied	-13547
anner	-13548
anywa	-13549
apata	-13550
arasi	-13551
ateja	-13552
atuma	-13553
baini	-13554
bofya	-13555
bread	-13556
chand	-13557
china	-13558
chine	-13559
cohol	-13560
cular	-13561
dhuru	-13562
eding	-13563
eless	-13564
eping	-13565
eseka	-13566
ested	-13567
estic	-13568
etezi	-13569
first	-13570
gojea	-13571
habit	-13572
hisia	-13573
holic	-13574
idiwa	-13575
iketi	-13576
indua	-13577
iries	-13578
irudi	-13579
isons	-13580
iture	-13581
jista	-13582
lanzi	-13583
legal	-13584
lings	-13585
luthi	-13586
merce	-13587
myers	-13588
nings	-13589
omach	-13590
orses	-13591
ounge	-13592
pages	-13593
panua	-13594
pkins	-13595
posal	-13596
rella	-13597
rents	-13598
ships	-13599
shiri	-13600
ughed	-13601
ukaji	-13602
umbua	-13603
verly	-13604
wanam	-13605
ysics	-13606
▁1000	-13607
▁Axis	-13608
▁Baby	-13609
▁Bath	-13610
▁Chen	-13611
▁Code	-13612
▁Cost	-13613
▁Deta	-13614
▁Easy	-13615
▁Fair	-13616
▁Four	-13617
▁Glad	-13618
▁Gulf	-13619
▁Happ	-13620
▁Head	-13621
▁Help	-13622
▁Huko	-13623
▁Josh	-13624
▁Kims	-13625
▁Kitu	-13626
▁Kozi	-13627
▁Lady	-13628
▁Live	-13629
▁Mash	-13630
▁Moyo	-13631
▁Need	-13632
▁Nice	-13633
▁Prom	-13634
▁Roho	-13635
▁Tour	-13636
▁Town	-13637
▁Wame	-13638
▁YOUR	-13639
▁Yote	-13640
▁akis	-13641
▁apps	-13642
▁atmo	-13643
▁babu	-13644
▁bact	-13645
▁bags	-13646
▁bibi	-13647
▁boss	-13648
▁butt	-13649
▁calm	-13650
▁cart	-13651
▁chao	-13652
▁cuts	-13653
▁deck	-13654
▁desk	-13655
▁dick	-13656
▁dire	-13657
▁dive	-13658
▁dram	-13659
▁duty	-13660
▁elfu	-13661
▁fake	-13662
▁fert	-13663
▁foam	-13664
▁hats	-13665
▁hunt	-13666
▁huto	-13667
▁imes	-13668
▁kite	-13669
▁kuya	-13670
▁laun	-13671
▁lazy	-13672
▁liko	-13673
▁lone	-13674
▁magu	-13675
▁mala	-13676
▁modu	-13677
▁obed	-13678
▁oral	-13679
▁pace	-13680
▁phen	-13681
▁pics	-13682
▁pigs	-13683
▁prec	-13684
▁radi	-13685
▁rear	-13686
▁reti	-13687
▁sail	-13688
▁scal	-13689
▁scar	-13690
▁sees	-13691
▁seli	-13692
▁shir	-13693
▁shit	-13694
▁surf	-13695
▁thro	-13696
▁tons	-13697
▁unga	-13698
▁unit	-13699
▁vary	-13700
▁vifo	-13701
▁viko	-13702
▁vipi	-13703
▁vyuo	-13704
▁wars	-13705
▁yang	-13706
ancing	-13707
andami	-13708
andiko	-13709
angaji	-13710
apenzi	-13711
arting	-13712
cholar	-13713
covery	-13714
ension	-13715
ervous	-13716
forced	-13717
fuatwa	-13718
fukuza	-13719
gemeza	-13720
headed	-13721
himiza	-13722
icians	-13723
inable	-13724
inator	-13725
ipande	-13726
ishika	-13727
isible	-13728
istant	-13729
kuweza	-13730
laimed	-13731
laughs	-13732
laysia	-13733
liance	-13734
mbusho	-13735
ongoji	-13736
ptions	-13737
puuzwa	-13738
rality	-13739
ratibu	-13740
rating	-13741
reness	-13742
spital	-13743
stolic	-13744
tafuta	-13745
turing	-13746
ulizwa	-13747
ungaji	-13748
unguzi	-13749
unguzo	-13750
utable	-13751
utiful	-13752
vanced	-13753
wakati	-13754
worthy	-13755
▁2012.	-13756
▁2017,	-13757
▁2017.	-13758
▁Asili	-13759
▁Chama	-13760
▁Class	-13761
▁Enjoy	-13762
▁Event	-13763
▁HAPPY	-13764
▁Italy	-13765
▁Kombe	-13766
▁Kutoa	-13767
▁Michi	-13768
▁Motor	-13769
▁Point	-13770
▁Quest	-13771
▁Short	-13772
▁Tukio	-13773
▁Vituo	-13774
▁WestW	-13775
▁abund	-13776
▁abuse	-13777
▁aende	-13778
▁akawa	-13779
▁akiba	-13780
▁aliyo	-13781
▁armed	-13782
▁asset	-13783
▁audio	-13784
▁awake	-13785
▁awful	-13786
▁broke	-13787
▁chest	-13788
▁clips	-13789
▁comic	-13790
▁creep	-13791
▁dansi	-13792
▁deleg	-13793
▁diski	-13794
▁dread	-13795
▁drops	-13796
▁ebook	-13797
▁embar	-13798
▁endea	-13799
▁essay	-13800
▁false	-13801
▁fears	-13802
▁fever	-13803
▁fewer	-13804
▁firms	-13805
▁fixes	-13806
▁gramu	-13807
▁grows	-13808
▁habit	-13809
▁haima	-13810
▁hakun	-13811
▁hauna	-13812
▁hesit	-13813
▁incon	-13814
▁index	-13815
▁indic	-13816
▁juisi	-13817
▁kutia	-13818
▁layer	-13819
▁legit	-13820
▁lemon	-13821
▁lists	-13822
▁march	-13823
▁mercy	-13824
▁meter	-13825
▁meupe	-13826
▁mjane	-13827
▁motiv	-13828
▁msuko	-13829
▁mvuke	-13830
▁neema	-13831
▁ngapi	-13832
▁nikit	-13833
▁nilit	-13834
▁ninam	-13835
▁ninyi	-13836
▁ought	-13837
▁pango	-13838
▁pangu	-13839
▁panic	-13840
▁param	-13841
▁paste	-13842
▁pauni	-13843
▁pengo	-13844
▁pitch	-13845
▁pride	-13846
▁puppy	-13847
▁recru	-13848
▁resur	-13849
▁rever	-13850
▁rough	-13851
▁rural	-13852
▁sadly	-13853
▁score	-13854
▁senti	-13855
▁shame	-13856
▁skept	-13857
▁songs	-13858
▁sport	-13859
▁stays	-13860
▁sunny	-13861
▁sweat	-13862
▁taste	-13863
▁tatoo	-13864
▁tells	-13865
▁tempt	-13866
▁tests	-13867
▁trend	-13868
▁twist	-13869
▁ubaya	-13870
▁ulimi	-13871
▁unaji	-13872
▁uncom	-13873
▁unene	-13874
▁uondo	-13875
▁upili	-13876
▁urais	-13877
▁usafi	-13878
▁usage	-13879
▁utata	-13880
▁uwazi	-13881
▁uwepo	-13882
▁veget	-13883
▁veter	-13884
▁vital	-13885
▁viuno	-13886
▁vyema	-13887
▁wanne	-13888
▁weigh	-13889
▁yards	-13890
▁zinat	-13891
▁zinge	-13892
ajiriwa	-13893
ariadha	-13894
asheria	-13895
asifiki	-13896
atumika	-13897
chiliwa	-13898
endelee	-13899
faction	-13900
gawanya	-13901
ichukue	-13902
ificial	-13903
ilikuwa	-13904
ingizwa	-13905
itishwa	-13906
jitenga	-13907
lewesha	-13908
mbuliwa	-13909
nabelle	-13910
onsense	-13911
otazama	-13912
pitisha	-13913
pokeaji	-13914
rejesha	-13915
ressive	-13916
rolling	-13917
ungumza	-13918
▁Africa	-13919
▁Ambayo	-13920
▁Author	-13921
▁Chapel	-13922
▁Crypto	-13923
▁Daniel	-13924
▁Furaha	-13925
▁Future	-13926
▁Garden	-13927
▁Govern	-13928
▁Journa	-13929
▁Kaunti	-13930
▁Market	-13931
▁Mawazo	-13932
▁Mother	-13933
▁Msingi	-13934
▁Nevada	-13935
▁Policy	-13936
▁Polisi	-13937
▁Resort	-13938
▁Things	-13939
▁Wonder	-13940
▁adhabu	-13941
▁afford	-13942
▁almasi	-13943
▁apolog	-13944
▁argued	-13945
▁assign	-13946
▁baraka	-13947
▁barely	-13948
▁bother	-13949
▁breaks	-13950
▁bridge	-13951
▁butter	-13952
▁calcul	-13953
▁chanjo	-13954
▁cherry	-13955
▁cities	-13956
▁colors	-13957
▁column	-13958
▁conver	-13959
▁curric	-13960
▁delete	-13961
▁dental	-13962
▁deploy	-13963
▁dozens	-13964
▁estate	-13965
▁exceed	-13966
▁filing	-13967
▁fought	-13968
▁gained	-13969
▁gazeti	-13970
▁ghasia	-13971
▁ghosts	-13972
▁godoro	-13973
▁gorofa	-13974
▁hakimu	-13975
▁hangar	-13976
▁hatuna	-13977
▁huitwa	-13978
▁immune	-13979
▁incent	-13980
▁intera	-13981
▁island	-13982
▁jeraha	-13983
▁jessie	-13984
▁kabati	-13985
▁kabila	-13986
▁kasisi	-13987
▁kinach	-13988
▁kirefu	-13989
▁kitufe	-13990
▁kuitwa	-13991
▁kunung	-13992
▁leader	-13993
▁league	-13994
▁mabawa	-13995
▁madawa	-13996
▁mainly	-13997
▁manane	-13998
▁mapafu	-13999
▁mateso	-14000
▁matope	-14001
▁mchafu	-14002
▁meneja	-14003
▁mighty	-14004
▁mining	-14005
▁mirror	-14006
▁mjomba	-14007
▁moduli	-14008
▁moyoni	-14009
▁narrow	-14010
▁nicely	-14011
▁nikiwa	-14012
▁nilizo	-14013
▁nitaku	-14014
▁niweza	-14015
▁nobody	-14016
▁nodded	-14017
▁parano	-14018
▁planet	-14019
▁poster	-14020
▁prejud	-14021
▁preval	-14022
▁proves	-14023
▁publis	-14024
▁racing	-14025
▁rehema	-14026
▁resort	-14027
▁restra	-14028
▁retain	-14029
▁risiti	-14030
▁saruji	-14031
▁scared	-14032
▁semina	-14033
▁sequel	-14034
▁smiled	-14035
▁spinal	-14036
▁spoken	-14037
▁struct	-14038
▁suites	-14039
▁summit	-14040
▁sympat	-14041
▁telome	-14042
▁termin	-14043
▁timely	-14044
▁transa	-14045
▁tuanze	-14046
▁tukiwa	-14047
▁ufufuo	-14048
▁ugaidi	-14049
▁unfair	-14050
▁utumie	-14051
▁uwajib	-14052
▁vilivy	-14053
▁wakili	-14054
▁walini	-14055
▁weekly	-14056
▁wisdom	-14057
▁worker	-14058
Tunaweza	-14059
amwambia	-14060
ashangaa	-14061
chimbaji	-14062
ervation	-14063
ervative	-14064
funuliwa	-14065
hangilia	-14066
haribika	-14067
hesabiwa	-14068
ications	-14069
peration	-14070
plomasia	-14071
shikilia	-14072
ulations	-14073
wachukia	-14074
wajibika	-14075
zungumzi	-14076
▁Ability	-14077
▁African	-14078
▁Airport	-14079
▁Biology	-14080
▁Brother	-14081
▁Bubbles	-14082
▁Captain	-14083
▁Contact	-14084
▁Details	-14085
▁Fiction	-14086
▁Finance	-14087
▁Fitness	-14088
▁Imekuwa	-14089
▁Journal	-14090
▁Kichina	-14091
▁Kikundi	-14092
▁Kingdom	-14093
▁Kupitia	-14094
▁Lieuten	-14095
▁Mataifa	-14096
▁Ninaona	-14097
▁Outlook	-14098
▁Project	-14099
▁Special	-14100
▁Support	-14101
▁Ukristo	-14102
▁Wengine	-14103
▁adopted	-14104
▁affairs	-14105
▁akaenda	-14106
▁aliweka	-14107
▁anxiety	-14108
▁applies	-14109
▁aspects	-14110
▁assault	-14111
▁attacks	-14112
▁banking	-14113
▁blogger	-14114
▁booking	-14115
▁careers	-14116
▁casting	-14117
▁citizen	-14118
▁claimed	-14119
▁classes	-14120
▁cleaner	-14121
▁combine	-14122
▁compare	-14123
▁concern	-14124
▁configu	-14125
▁context	-14126
▁corners	-14127
▁defined	-14128
▁degrees	-14129
▁desturi	-14130
▁diverse	-14131
▁doctors	-14132
▁equally	-14133
▁ethical	-14134
▁experim	-14135
▁faragha	-14136
▁filling	-14137
▁finance	-14138
▁footage	-14139
▁frankly	-14140
▁hupenda	-14141
▁hutokea	-14142
▁ilisema	-14143
▁illegal	-14144
▁illustr	-14145
▁infobox	-14146
▁inhabit	-14147
▁kifungo	-14148
▁kukagua	-14149
▁kulipia	-14150
▁kusafir	-14151
▁kusahau	-14152
▁kuungwa	-14153
▁largely	-14154
▁laughed	-14155
▁leaning	-14156
▁lesbian	-14157
▁linking	-14158
▁majengo	-14159
▁mapambo	-14160
▁mlipuko	-14161
▁monthly	-14162
▁mshauri	-14163
▁msomaji	-14164
▁musical	-14165
▁mwajiri	-14166
▁mwanawe	-14167
▁neutral	-14168
▁niambie	-14169
▁nidhamu	-14170
▁ninajua	-14171
▁ongoing	-14172
▁operate	-14173
▁picking	-14174
▁plugins	-14175
▁pudding	-14176
▁punguzo	-14177
▁regions	-14178
▁rejista	-14179
▁reminds	-14180
▁rolling	-14181
▁seconds	-14182
▁starehe	-14183
▁staring	-14184
▁staying	-14185
▁stomach	-14186
▁studied	-14187
▁styling	-14188
▁sufuria	-14189
▁survive	-14190
▁talents	-14191
▁thawabu	-14192
▁tumeona	-14193
▁tunacho	-14194
▁tunaona	-14195
▁uongozi	-14196
▁usafiri	-14197
▁victory	-14198
▁viewers	-14199
▁vikombe	-14200
▁vimelea	-14201
▁wafuasi	-14202
▁walijua	-14203
▁wangapi	-14204
▁weights	-14205
▁yaliyot	-14206
▁zinazot	-14207
ambatisho	-14208
anagement	-14209
aruhusiwa	-14210
chafuliwa	-14211
fadhiliwa	-14212
gawanyika	-14213
ghanistan	-14214
hamishika	-14215
ichunguza	-14216
idanganya	-14217
inability	-14218
ishangazi	-14219
ishikilia	-14220
rehensive	-14221
▁Asanteni	-14222
▁Catholic	-14223
▁Colorado	-14224
▁Consider	-14225
▁Egyptian	-14226
▁Honestly	-14227
▁Ingekuwa	-14228
▁Kamishna	-14229
▁Kihispan	-14230
▁Kimsingi	-14231
▁Malaysia	-14232
▁Michigan	-14233
▁Minister	-14234
▁Msaidizi	-14235
▁Mshirika	-14236
▁Msichana	-14237
▁Ninahisi	-14238
▁Nitakuwa	-14239
▁Tibbetti	-14240
▁Tulikuwa	-14241
▁Uholanzi	-14242
▁Usisahau	-14243
▁Writings	-14244
▁agencies	-14245
▁akageuka	-14246
▁alitumia	-14247
▁anayefaa	-14248
▁appeared	-14249
▁assigned	-14250
▁attacked	-14251
▁attorney	-14252
▁baseball	-14253
▁blankets	-14254
▁capacity	-14255
▁changing	-14256
▁citizens	-14257
▁clothing	-14258
▁combined	-14259
▁composed	-14260
▁concrete	-14261
▁conflict	-14262
▁declared	-14263
▁defeated	-14264
▁discount	-14265
▁disorder	-14266
▁distance	-14267
▁district	-14268
▁dressing	-14269
▁ensuring	-14270
▁entering	-14271
▁everyday	-14272
▁external	-14273
▁gathered	-14274
▁generate	-14275
▁giveaway	-14276
▁graphics	-14277
▁grateful	-14278
▁guessing	-14279
▁haifanyi	-14280
▁hatukuwa	-14281
▁haupaswi	-14282
▁hufikiri	-14283
▁ifuatayo	-14284
▁ilifanya	-14285
▁ilisomwa	-14286
▁ingeweza	-14287
▁innocent	-14288
▁ionekane	-14289
▁judgment	-14290
▁kinywaji	-14291
▁kuhariri	-14292
▁kustaaja	-14293
▁kuteleza	-14294
▁kuwaleta	-14295
▁meantime	-14296
▁meetings	-14297
▁merchand	-14298
▁mhandisi	-14299
▁moisture	-14300
▁muungano	-14301
▁phenomen	-14302
▁pilipili	-14303
▁provider	-14304
▁referral	-14305
▁register	-14306
▁scenario	-14307
▁stopping	-14308
▁strategy	-14309
▁swimming	-14310
▁terrific	-14311
▁thankful	-14312
▁theluthi	-14313
▁tunaishi	-14314
▁uendelee	-14315
▁ujifunze	-14316
▁ukitumia	-14317
▁ukiukaji	-14318
▁ukombozi	-14319
▁unaoweza	-14320
▁unemploy	-14321
▁usisahau	-14322
▁vijijini	-14323
▁vinavyot	-14324
▁vinywaji	-14325
▁waliamua	-14326
▁walipata	-14327
▁walipiga	-14328
▁zilizopo	-14329
hughulisha	-14330
ifications	-14331
karibishwa	-14332
▁Kimataifa	-14333
▁Maendeleo	-14334
▁Mtiririko	-14335
▁Ninaamini	-14336
▁Otherwise	-14337
▁Therefore	-14338
▁Tunapaswa	-14339
▁Unapokuwa	-14340
▁Unawezaje	-14341
▁Utafutaji	-14342
▁Utaratibu	-14343
▁affecting	-14344
▁alijaribu	-14345
▁anahitaji	-14346
▁anayeishi	-14347
▁angependa	-14348
▁breathing	-14349
▁brilliant	-14350
▁computers	-14351
▁conducted	-14352
▁confirmed	-14353
▁contacted	-14354
▁container	-14355
▁continues	-14356
▁countless	-14357
▁described	-14358
▁elections	-14359
▁encourage	-14360
▁excessive	-14361
▁expertise	-14362
▁extension	-14363
▁haikuweza	-14364
▁haitakuwa	-14365
▁ilichukua	-14366
▁iliyobaki	-14367
▁inability	-14368
▁inasikika	-14369
▁initially	-14370
▁itachukua	-14371
▁kimapenzi	-14372
▁kufukuzwa	-14373
▁kuheshimu	-14374
▁kujifanya	-14375
▁kujiuliza	-14376
▁kusasisha	-14377
▁kutafsiri	-14378
▁kutofaulu	-14379
▁kutumikia	-14380
▁kuvumilia	-14381
▁locations	-14382
▁mapungufu	-14383
▁msukosuko	-14384
▁mwigizaji	-14385
▁naturally	-14386
▁nijulishe	-14387
▁ninapenda	-14388
▁ningesema	-14389
▁positions	-14390
▁privilege	-14391
▁promoting	-14392
▁recording	-14393
▁reflected	-14394
▁sensitive	-14395
▁strategic	-14396
▁substance	-14397
▁surrender	-14398
▁technique	-14399
▁tunatumia	-14400
▁unavyoona	-14401
▁utafutaji	-14402
▁vacations	-14403
▁variables	-14404
▁vichocheo	-14405
▁viewpoint	-14406
▁vinapaswa	-14407
▁wahandisi	-14408
▁walitumia	-14409
▁wanapenda	-14410
▁wanasiasa	-14411
▁watafanya	-14412
▁watendaji	-14413
▁yalitokea	-14414
atofautiana	-14415
grahammyers	-14416
hakikishiwa	-14417
▁Affordable	-14418
▁Especially	-14419
▁Nilifurahi	-14420
▁Shirikisho	-14421
▁alichokuwa	-14422
▁aliniambia	-14423
▁alionyesha	-14424
▁anaonyesha	-14425
▁approached	-14426
▁approaches	-14427
▁atmosphere	-14428
▁bankruptcy	-14429
▁constantly	-14430
▁definition	-14431
▁demokrasia	-14432
▁evaluation	-14433
▁excitement	-14434
▁huchapisha	-14435
▁inspection	-14436
▁journalism	-14437
▁kubadilika	-14438
▁kuboreshwa	-14439
▁kukubalika	-14440
▁kupunguzwa	-14441
▁litigation	-14442
▁maandalizi	-14443
▁membership	-14444
▁mwanachama	-14445
▁ninavutiwa	-14446
▁parliament	-14447
▁percentage	-14448
▁professors	-14449
▁smartphone	-14450
▁sufficient	-14451
▁suggesting	-14452
▁toothpaste	-14453
▁unafikiria	-14454
▁wanafikiri	-14455
▁wanaotumia	-14456
▁washindani	-14457
▁Braggsville	-14458
▁Kikomunisti	-14459
▁Performance	-14460
▁Wakomunisti	-14461
▁achievement	-14462
▁assessments	-14463
▁association	-14464
▁assumptions	-14465
▁correlation	-14466
▁declaration	-14467
▁description	-14468
▁differences	-14469
▁electricity	-14470
▁explanation	-14471
▁fascinating	-14472
▁grandfather	-14473
▁haimaanishi	-14474
▁haipatikani	-14475
▁iliyofanywa	-14476
▁institution	-14477
▁instruction	-14478
▁kinachoitwa	-14479
▁kukubaliana	-14480
▁legislation	-14481
▁maingiliano	-14482
▁nikifikiria	-14483
▁obligations	-14484
▁resolutions	-14485
▁substantial	-14486
▁tunajifunza	-14487
▁unavyofanya	-14488
▁uwajibikaji	-14489
▁yanaonekana	-14490
▁Conscription	-14491
▁civilization	-14492
▁coordination	-14493
▁expectations	-14494
▁experiencing	-14495
▁kushirikiana	-14496
▁kushughulika	-14497
▁measurements	-14498
▁occasionally	-14499
▁presidential	-14500
▁uandikishaji	-14501
▁unaohitajika	-14502
▁Communication	-14503
▁accommodation	-14504
▁circumstances	-14505
▁documentation	-14506
▁entertainment	-14507
▁organizations	-14508
▁walioathiriwa	-14509
▁communications	-14510
▁isiyohamishika	-14511
▁vinavyohusiana	-14512
▁recommendations	-14513
-0	-14514
.(	-14515
23	-14516
3)	-14517
31	-14518
42	-14519
5:	-14520
66	-14521
=6	-14522
AD	-14523
CC	-14524
Ex	-14525
FO	-14526
GA	-14527
HS	-14528
Ho	-14529
Ka	-14530
OP	-14531
TS	-14532
TV	-14533
XE	-14534
]1	-14535
hr	-14536
kp	-14537
uP	-14538
wk	-14539
xi	-14540
▁^	-14541
▁©	-14542
!--	-14543
-12	-14544
.).	-14545
/01	-14546
101	-14547
201	-14548
27]	-14549
:21	-14550
?),	-14551
???	-14552
ALY	-14553
ANK	-14554
Bay	-14555
COM	-14556
Car	-14557
ECT	-14558
END	-14559
ERO	-14560
IFA	-14561
ITH	-14562
Let	-14563
Maj	-14564
Mar	-14565
Mtu	-14566
Nam	-14567
URE	-14568
USE	-14569
Uta	-14570
Wor	-14571
bok	-14572
bot	-14573
bro	-14574
bui	-14575
bus	-14576
dep	-14577
edu	-14578
ffy	-14579
fox	-14580
geu	-14581
gie	-14582
gov	-14583
hof	-14584
hoo	-14585
ico	-14586
ifi	-14587
ikh	-14588
iro	-14589
itz	-14590
mac	-14591
mbs	-14592
off	-14593
pha	-14594
pps	-14595
rem	-14596
rio	-14597
rot	-14598
sey	-14599
ski	-14600
spe	-14601
sts	-14602
tes	-14603
tex	-14604
tey	-14605
thi	-14606
tii	-14607
uer	-14608
uji	-14609
ums	-14610
usa	-14611
vua	-14612
▁!!	-14613
▁"<	-14614
▁$5	-14615
▁/*	-14616
▁02	-14617
▁06	-14618
▁1-	-14619
▁1:	-14620
▁2°	-14621
▁3)	-14622
▁35	-14623
▁39	-14624
▁4)	-14625
▁4,	-14626
▁5/	-14627
▁51	-14628
▁58	-14629
▁65	-14630
▁66	-14631
▁6:	-14632
▁88	-14633
▁=)	-14634
▁AL	-14635
▁AS	-14636
▁BY	-14637
▁CC	-14638
▁Cy	-14639
▁DC	-14640
▁Dk	-14641
▁Jr	-14642
▁KU	-14643
▁Kn	-14644
▁Ks	-14645
▁Ky	-14646
▁MY	-14647
▁Mb	-14648
▁SA	-14649
▁SD	-14650
▁SO	-14651
▁SW	-14652
▁Sw	-14653
▁TR	-14654
▁TT	-14655
▁UN	-14656
▁Ud	-14657
▁WH	-14658
▁ec	-14659
▁ft	-14660
▁ip	-14661
▁tv	-14662
▁uz	-14663
▁xx	-14664
▁£2	-14665
,...	-14666
-201	-14667
?!?!	-14668
Amer	-14669
Baba	-14670
Come	-14671
Cong	-14672
Here	-14673
Lear	-14674
Look	-14675
Lost	-14676
Rail	-14677
Some	-14678
Sovi	-14679
VERY	-14680
Your	-14681
ache	-14682
aled	-14683
alla	-14684
alle	-14685
alux	-14686
amar	-14687
amer	-14688
anaa	-14689
anch	-14690
arer	-14691
arie	-14692
arre	-14693
ased	-14694
ater	-14695
aven	-14696
bega	-14697
bika	-14698
bira	-14699
bral	-14700
cers	-14701
cham	-14702
chem	-14703
ckey	-14704
cord	-14705
daho	-14706
dari	-14707
deck	-14708
dege	-14709
dney	-14710
epka	-14711
erri	-14712
eser	-14713
ette	-14714
ewis	-14715
fici	-14716
fold	-14717
funi	-14718
ghai	-14719
girl	-14720
gled	-14721
gles	-14722
goza	-14723
hamp	-14724
hane	-14725
heim	-14726
hhhh	-14727
hics	-14728
hird	-14729
hiyo	-14730
hops	-14731
hrir	-14732
huma	-14733
idie	-14734
iezi	-14735
igno	-14736
ikii	-14737
ikip	-14738
ikis	-14739
ikut	-14740
ilet	-14741
inea	-14742
inky	-14743
irlf	-14744
jeni	-14745
kadi	-14746
kily	-14747
kuza	-14748
laix	-14749
laxy	-14750
lers	-14751
lets	-14752
leys	-14753
lick	-14754
limp	-14755
live	-14756
loni	-14757
lude	-14758
lves	-14759
make	-14760
mare	-14761
mega	-14762
mond	-14763
mone	-14764
news	-14765
omes	-14766
omic	-14767
onde	-14768
onia	-14769
onto	-14770
orms	-14771
othe	-14772
ouch	-14773
ouri	-14774
pard	-14775
play	-14776
ppie	-14777
psho	-14778
quis	-14779
rate	-14780
riko	-14781
sell	-14782
seme	-14783
shtu	-14784
sian	-14785
size	-14786
some	-14787
stab	-14788
stop	-14789
tech	-14790
text	-14791
tube	-14792
udes	-14793
uken	-14794
unyi	-14795
upon	-14796
uter	-14797
vage	-14798
vard	-14799
vors	-14800
wall	-14801
wave	-14802
weet	-14803
wide	-14804
wski	-14805
your	-14806
zina	-14807
zona	-14808
▁$0.	-14809
▁(10	-14810
▁(5)	-14811
▁101	-14812
▁10:	-14813
▁131	-14814
▁15%	-14815
▁19,	-14816
▁190	-14817
▁2.5	-14818
▁20-	-14819
▁22.	-14820
▁31,	-14821
▁39,	-14822
▁4:7	-14823
▁50,	-14824
▁50.	-14825
▁601	-14826
▁:-)	-14827
▁ABC	-14828
▁Ace	-14829
▁Adm	-14830
▁Ann	-14831
▁Att	-14832
▁Aur	-14833
▁Bam	-14834
▁Bat	-14835
▁Bid	-14836
▁Ble	-14837
▁Bru	-14838
▁CSM	-14839
▁Cel	-14840
▁CoD	-14841
▁Cow	-14842
▁DLT	-14843
▁Dol	-14844
▁Dun	-14845
▁EMT	-14846
▁Ein	-14847
▁Est	-14848
▁Eva	-14849
▁Eve	-14850
▁Flo	-14851
▁Fun	-14852
▁GDB	-14853
▁GUI	-14854
▁Gar	-14855
▁Gil	-14856
▁Glo	-14857
▁Glu	-14858
▁Gun	-14859
▁Han	-14860
▁Hay	-14861
▁Hot	-14862
▁Ill	-14863
▁Ima	-14864
▁Imm	-14865
▁Inn	-14866
▁Ivy	-14867
▁Jam	-14868
▁Jew	-14869
▁Jud	-14870
▁Kha	-14871
▁Kia	-14872
▁Lol	-14873
▁Lyn	-14874
▁MOD	-14875
▁Mak	-14876
▁Mif	-14877
▁Mue	-14878
▁NBA	-14879
▁NYT	-14880
▁Nam	-14881
▁OSS	-14882
▁Oak	-14883
▁Ori	-14884
▁PDF	-14885
▁PGA	-14886
▁Pap	-14887
▁Pin	-14888
▁Pun	-14889
▁RPG	-14890
▁RTL	-14891
▁Rap	-14892
▁Ret	-14893
▁Rif	-14894
▁Rod	-14895
▁SEO	-14896
▁Sem	-14897
▁Set	-14898
▁Sky	-14899
▁Sli	-14900
▁Sol	-14901
▁Sox	-14902
▁Tol	-14903
▁Tro	-14904
▁WOR	-14905
▁Wap	-14906
▁[19	-14907
▁alb	-14908
▁alt	-14909
▁amu	-14910
▁asp	-14911
▁ath	-14912
▁avo	-14913
▁baa	-14914
▁bac	-14915
▁biz	-14916
▁bon	-14917
▁bui	-14918
▁bum	-14919
▁daw	-14920
▁der	-14921
▁fed	-14922
▁hyd	-14923
▁jun	-14924
▁max	-14925
▁mut	-14926
▁odd	-14927
▁pdf	-14928
▁pod	-14929
▁pup	-14930
▁rat	-14931
▁rev	-14932
▁rot	-14933
▁sif	-14934
▁sky	-14935
▁thu	-14936
▁tip	-14937
▁tow	-14938
▁upa	-14939
▁uto	-14940
▁vul	-14941
▁wip	-14942
▁£14	-14943
CAUSE	-14944
JohnZ	-14945
Space	-14946
aches	-14947
adium	-14948
ality	-14949
ardin	-14950
arimu	-14951
aring	-14952
artic	-14953
asaka	-14954
asani	-14955
ashed	-14956
asons	-14957
atima	-14958
atupa	-14959
being	-14960
build	-14961
burgh	-14962
cated	-14963
ccoli	-14964
cepha	-14965
chemi	-14966
child	-14967
ckson	-14968
cracy	-14969
disho	-14970
enger	-14971
enipa	-14972
epuka	-14973
esthe	-14974
etabo	-14975
etoka	-14976
gombi	-14977
hachi	-14978
hames	-14979
haswa	-14980
hemos	-14981
https	-14982
hudia	-14983
ildas	-14984
ilson	-14985
ingie	-14986
ionea	-14987
itled	-14988
ktron	-14989
leans	-14990
lipwa	-14991
lphin	-14992
maker	-14993
mmers	-14994
neath	-14995
nival	-14996
ofisa	-14997
oldem	-14998
omain	-14999
omavu	-15000
oning	-15001
plate	-15002
ploma	-15003
pumua	-15004
quate	-15005
quila	-15006
raxia	-15007
rease	-15008
rical	-15009
riers	-15010
riott	-15011
rowth	-15012
rudia	-15013
saini	-15014
shine	-15015
smart	-15016
state	-15017
stein	-15018
sures	-15019
tably	-15020
uburn	-15021
ujiza	-15022
umbia	-15023
ungwa	-15024
vamia	-15025
welry	-15026
winda	-15027
yable	-15028
▁1997	-15029
▁1999	-15030
▁1:00	-15031
▁2001	-15032
▁9/11	-15033
▁Alas	-15034
▁Arts	-15035
▁BURE	-15036
▁Blog	-15037
▁Buck	-15038
▁Bush	-15039
▁Cody	-15040
▁Doge	-15041
▁Duke	-15042
▁FIFA	-15043
▁Film	-15044
▁Fool	-15045
▁Haha	-15046
▁Hati	-15047
▁Hawk	-15048
▁Hold	-15049
▁Hong	-15050
▁Host	-15051
▁Kadi	-15052
▁Kile	-15053
▁Knox	-15054
▁Krom	-15055
▁Land	-15056
▁Lind	-15057
▁Lost	-15058
▁Mada	-15059
▁Mars	-15060
▁Mili	-15061
▁Mill	-15062
▁Much	-15063
▁Nest	-15064
▁Nile	-15065
▁Olie	-15066
▁Oper	-15067
▁Paym	-15068
▁Pers	-15069
▁Pier	-15070
▁Said	-15071
▁Salv	-15072
▁Sato	-15073
▁Sera	-15074
▁Shel	-15075
▁Show	-15076
▁Sija	-15077
▁Stan	-15078
▁Talk	-15079
▁Tena	-15080
▁Thai	-15081
▁Tree	-15082
▁Trou	-15083
▁True	-15084
▁Umma	-15085
▁Unge	-15086
▁VanG	-15087
▁Visa	-15088
▁Vitu	-15089
▁WITH	-15090
▁Wale	-15091
▁Ward	-15092
▁Xbox	-15093
▁afad	-15094
▁ally	-15095
▁ambu	-15096
▁anza	-15097
▁bega	-15098
▁belt	-15099
▁beta	-15100
▁bird	-15101
▁buff	-15102
▁bugs	-15103
▁bulk	-15104
▁burn	-15105
▁cake	-15106
▁cant	-15107
▁chip	-15108
▁cler	-15109
▁core	-15110
▁damn	-15111
▁dare	-15112
▁deny	-15113
▁dont	-15114
▁drew	-15115
▁eBay	-15116
▁ears	-15117
▁enqu	-15118
▁epic	-15119
▁fold	-15120
▁gall	-15121
▁gere	-15122
▁glor	-15123
▁goti	-15124
▁gras	-15125
▁grin	-15126
▁grip	-15127
▁guns	-15128
▁hams	-15129
▁hire	-15130
▁huji	-15131
▁ikis	-15132
▁jopo	-15133
▁kick	-15134
▁kidi	-15135
▁knee	-15136
▁kums	-15137
▁kuoa	-15138
▁lebo	-15139
▁lord	-15140
▁mood	-15141
▁mtoa	-15142
▁nail	-15143
▁nose	-15144
▁ours	-15145
▁pact	-15146
▁pasi	-15147
▁pata	-15148
▁pink	-15149
▁pipe	-15150
▁pote	-15151
▁pref	-15152
▁pron	-15153
▁raha	-15154
▁rede	-15155
▁reps	-15156
▁shed	-15157
▁shru	-15158
▁somo	-15159
▁sore	-15160
▁tale	-15161
▁tani	-15162
▁trem	-15163
▁tube	-15164
▁tuwe	-15165
▁twin	-15166
▁ugly	-15167
▁ukim	-15168
▁ulit	-15169
▁unin	-15170
▁unne	-15171
▁unre	-15172
▁vuli	-15173
▁wema	-15174
▁ziwa	-15175
Please	-15176
Soviet	-15177
alysis	-15178
anyika	-15179
bilisi	-15180
charge	-15181
chezwa	-15182
chorwa	-15183
chukue	-15184
ciplin	-15185
cision	-15186
effect	-15187
entine	-15188
estyle	-15189
etokea	-15190
famili	-15191
ikataa	-15192
ilinda	-15193
indani	-15194
inding	-15195
iously	-15196
itably	-15197
itikia	-15198
kuacha	-15199
lingon	-15200
lishwa	-15201
mester	-15202
minifu	-15203
msingi	-15204
mwomba	-15205
nament	-15206
nesota	-15207
okoaji	-15208
olonel	-15209
ongezi	-15210
ounced	-15211
ourage	-15212
papers	-15213
poleon	-15214
potoka	-15215
racing	-15216
ranged	-15217
ririka	-15218
ronomy	-15219
rovers	-15220
sirnis	-15221
stream	-15222
sukuma	-15223
tarian	-15224
timore	-15225
umbled	-15226
unguze	-15227
vunjwa	-15228
zoezwa	-15229
▁($10,	-15230
▁1992.	-15231
▁2010,	-15232
▁2011.	-15233
▁5,000	-15234
▁Admin	-15235
▁Among	-15236
▁Baths	-15237
▁Beach	-15238
▁Benki	-15239
▁Brook	-15240
▁Cairo	-15241
▁Capps	-15242
▁Cheng	-15243
▁Cliff	-15244
▁Daima	-15245
▁Demon	-15246
▁Devin	-15247
▁Diane	-15248
▁Dusty	-15249
▁EVERY	-15250
▁Earth	-15251
▁Eliza	-15252
▁Games	-15253
▁Glean	-15254
[...]
